node {
  name: "input"
  op: "Placeholder"
  attr {
    key: "dtype"
    value {
      type: DT_FLOAT
    }
  }
  attr {
    key: "shape"
    value {
      shape {
        dim {
          size: -1
        }
        dim {
          size: 512
        }
        dim {
          size: 512
        }
        dim {
          size: 3
        }
      }
    }
  }
}
node {
  name: "Conv2D/filter"
  op: "Const"
  attr {
    key: "dtype"
    value {
      type: DT_FLOAT
    }
  }
  attr {
    key: "value"
    value {
      tensor {
        dtype: DT_FLOAT
        tensor_shape {
          dim {
            size: 5
          }
          dim {
            size: 5
          }
          dim {
            size: 3
          }
          dim {
            size: 64
          }
        }
        tensor_content: "\013\373\031=\234\336\211;\030,\350<*V#<c\rG;\347\006\311;\277Y\273;z\303C=\255\327W<\212\356\n=X\244\251\276\254\334\377\274%>\213<\331/]<\220\236\372\271C\367!=\250*y\275\231\026\006<Y\035\013<{%;\274\202\036\341\273\211\257\227\274\221\221c\275\241\3111=d%\252\275Zt\032\272\222\215t\275\233\260D\275\033\240\370<\322\325+=\330jA\274\346\237\375<9\343\035\275\326\243\\=\300\376\t\273b\256J\276\224\2713;CV\350\274\235\377\204\274\236\227\330<\351\235\005=\316\307\033=1\253$\275\037\t\233\272\036\312H<c\3432\276\316R\266<\363\3019\275\205\026\007=\374\300|\276\to+\275\370C\253:\003[7<Q\035U\274b\216\205;y\354P\274\2719\273<M\3331=qO\206\275\260\025%<\027IQ\274\034c\253<Vl&\274y\004<=Q\263\242\273C\216\212<\030?\250;\323\3759\274\270O=\275-\265\302<X#\353\273.\302\306<\220\206\311\273\275\230\253<\213\374\206\276\204\303\374<Vn\031\274\35713\275\235\365\340;\257*\303<\360\364^\275D1z\274\277\020\324<B\007\r=\037\212\372\274%\372\312<\206\275\313<\rE\267<S\266j\275\027\230\261\274!W\203\275\215u\346\274\034V\224\273\320\364!\274\2166\262\274\226\353\276<h\365\277<\024\021z\275v8\035\275\006\216\356<\326\301\245\274@\310\315<V\025\326:\243\356\244\274^\020\336;\241\234\304\274\300\246H=\242\371\263<\004pz<\236cb\276\357\2407\275A-\357;\254\205\010\275[\005K\276\026\003\003\274w\276\375\274vG\201\275\356\264\004=\204\270\211\274%\245\365\274\325\010R\274\344\033\n<0[\017\274\367K\310\274\302\005\000\275\371\020\036<N\371!\275\267ah\275\326\367\347\274J\370:\275\003Jz<\301ef<\3475V=\215\210\341;\032\230%<\310\222$\275\027Z\345\2740\342\373<o3\231\276S\310a\273O\201\353\273\375\240\344\274\2200C<[\3457\274\366\025c=\225<C\273\3563\335\274^-\035=\031!,=BjM\274\tt\276\272\2003\217\274\221p\200\275\223\252)=\240\303y\274r&\317<\270xN=~L\307\274\002\311&=\302\246\315<!F\245<\245F8\272\251H\324<j&\302\273x\260\016\275\0308Y=\036\333\215\274\"\226\r\274U\360x\275\271\\\255\273\327e\264\274F\007\271\274U\316\365\274\007\336\200\276\205f9=\244\222^;\220\017\212;\202Cj\276\263\034b\275\330/\335<\307?\203\2742f\310;\365\257\365\273\222\200\000\274\242\347\374\273\207\372,\275E\225\r=>u\006=1\345\210=\243\005\214\274\004\360t<@\244\343\273\240]\"\275\004\264\234\272+\214\203\272\356\030U\274\340\252&\2734\212\231<3\215\253\274\341\306}<\234\366$\274k\213\201\274\017\321\212\276\243\331X\274-\302^<\320dJ\2740\304\025=\307\332\304<\243q\n\275\233\363==\216\342I\275\025)3<\257X\035=\366\373\217\273\2768\213:C\005\215<\312\220\244\275\254n\223<\243\377\343\274^j\363\2747\350\334<\241\035\036\275j\233\206<\345\247\244\274\236-\326<`r6<\272e1=\017wJ\276\267\324\300;\020&\213\274\337}\311<F\021\210<\310N]=@\277\013\2755\035\231\274\263:W\275\004\256\212<\240pn\272\201\250\307<\307\231\211<\006\227\023\275v\266\276<\260\020\002\274\341\343\360\274^[\034\274\350\331\305<\005n\330\274\033~\345\274-=\346;\300\331\343<\277\301*<c\274N=c\270\275\274\370P2\275G\236\236\274\305\266\n\274\t}\"<Q\246\347;\306\320\014\274\326\0036=\341j\037\274\351\267\271;n\326\226\272\311rn\275\344\352}\274\201=\177\273\177\264\207\276\030\037\n=9\3544<\017\303\032=f\300\315\274XY\223\274\362\253\250<\003\263\250<:g\303;\27224;C\274\351;\225\217\230\275\340@/=\312\303^\275\226BA\275J\357\320\274\323]\307\275\265a\005=\353\253\325<\377J\361<\302\216\333\274\227\240\034;^+q\274\033\364\375<b\"\n\275\230X\260<<k\267<~\355\217:\177\205/\274\214\014\026=4!\327<\304\010@=X\304/\2742\231\223<p\365]\275\336\221\257<0=\016=<\023*\275\010\350\305\273{x\260\274[\247\322\273b?\362\273\206\016\264\275=2\372\274\222\000\346\274*X\242\274Y\271\260;\242\317\006=k\031\267;\275\304\221\273r\016e<\001\315D<\032\355\027=\247^b=\023# <(Nw<{4\362\273\265\373f\274\217\367\266;\351\327~\273\321\223\301;\261\2168\272\031\264\272<7#N<\267\2671\276\000\300k<\377\257\233\272*\304\251\274\270\215O\275\014,H\274_\r\004\274\236<\346\274\331G\225;\3138;\275U\033\n\275\313C\032=\nE\020<\2658\336\274,.\251\275\\F\233<d\355k\275\224e7<K\035\366\273\311B~<Qq\244;\022\240$=bX\342\274)q\202<\242\372\347\274\337#\\\275#S\230\274\241{R\274\270\017N\274\221\224\232\274l\230\365<\262\225\234\274W\265\323<\275\324\005=\245\245\002=X\350\216<\275f\342\274 \216\"\275\204\263\323<\332\225>\275\205!\224\274\025\362\215<PZ\217\275\0175\354\274\210t/\275\277\254v<t\224\256\272\351\334\323<y\365X\275\347H\317\267(\357\373\274\017U\257\2740\022\234<\373-\321;\221\036\217:R\214\317<<\\7=\232y\031\274\022\317\010\275o\021\374\274\001\274\"=\027\202\031=0\353G\275\351\326i\274)\202\270;\303a\224\274\361\374\034\275S\314$=`\335\203\275\241\377\002=\013;\006\275\203\204\367\274\237o\026=\'\333\312\274[8\307\273\271\207\346\274\272\246\373\273\206\276\037\275\344\337*\275\210\263\244\274!\005\212<\361v&<\216$\343\274\013u\302<\375rh<\254\370\023=\222I\207\274?\007\246\274)\034z\275D\315?\276\346\346\206\274\237>\337<\013Y\244;\313\372\214<\033\317a\275Q_[<\373\2267:A\323\226\274*(\013\274\205\3170\274+5\227<4\323\360\273L\227\310<Z\343\261\274\346\032\347\274o\r\255<I\346\212<wwy\273\330\353@;[M\266\274\227\372\022\275\370h\014<,i.\275\370<\360\274\000\331\014\274\250\362S=\251\303\210<g\211L\275\357\243\316<{j\271<\315\231\014<\313w\266\272\033/\243\274\020\260$\274\020*\005<\230\253E\275\217 D<\273\306\r\2751\001x<\366Q\311;\373\342\214<\211\312\020\273*\256\365<\232D#\275\026\241\234\275\341\304G<\367,6\275\022\360\372\273EHI\275\031(\343<Q\315]\275nv\231<_\007?\275\027P6=\025\022\346<\370&Z\274\247kr<I\027\323<\270$\031=\327\022\352<\232\306\344<Nl\344<\363\313\362\274\262c9\275\036\372\032\274\010\247\271<K\027\177<\210 V\274\230\357?\275\274kQ\274\323\356O<\024\203\355<y^\345<@\333i\275\nO\302<\006\232\010=\351\264\222\274\223\340\n=\023L\217\273C\372!=;\240\245\274\016\331\201\274\247\315\370\274*\244\006\2756\376\233\273\251\3231=\310\260C\273g\224\230<\226#\007\275\210\177\n\2757\226P;4K(=\312\300\215:K\202\r<\237\256\353\273\271\244\005\274\375\204\030=0C\376<\236B\255::E\245:J\3007<\275$2=I_1\2755\366\232\273\206E?\275\006x_<\327T\225<\375\010\020\2740\263\321\273\331\235-\275[\307\035\275iM\352<Y\274\003=\227\324\335<\216H\365<\246l\266\274\213\377\262\275\235\000D\275\321\006\207\274UK<<\321\312\002\275\342x \275y\342\031\275y#\010<\026i^\273\215\000o\274w\027A\275\312O\016=\213\300!=\346\027\032\274\303-\322:\021\030\034\275\366}<<\357E\277;\374\250\332\274\317K\\\275\034\327\374\274l\233\233<\021%\330<\355\342/\274{u\211\274\362bh=\300\275g\275O\317&\275/{\376\274\244/R=\325\267d<a\374N<\237\030\372<\rO\241;+\334\241\274\233\203\225\274\250$\034<\274.\035\275\205\331\276<\312uZ<\211\025\004\272\346\312$\275=1\346\274\315\031#\275\330z<<U\256\243:\304+\311;\314\351\342\274\010\234\307<\207\351\025=h\236\322<\337\0141;\006\335\304;\327\204\317\273\353\r,\273o\336L\274(\030\037<\257Bf\274\355V\031=\'\276\200<\000\302I\275\2573\035<\264YA<\214\262\263\274M\306\367\275d\221C<Z\306\020=\304\034\276\273\351\332\n\275\225\351R\272C\304?=?eU\275\210\246\021<?\350\212\274\017\r\320<\2149Y\276\3113\2249\370\221\273\273&\0230\275/\000\244<\352\0215<CQ\334\274\224\306\202=bk\010=C\365\346<\265\005\225\272b\267\210<\2117\215\273\270\243\240<\004\207\025\274,\277u=az\245\274\237\323\225\275\337\3104=\201g\307\2735\262N={\225\324;\233\025\004;\210r\001=\342l\212\274K\355#<|\217\n\274_1\t=\016\270\212\274f\346\303\273w\376\320\274!g\017\275\010\203a=\345E\204<\203\212\231<\036\273\312\2747Dz\275\326\340\373;l\357\315\274\310\246 \275\024\004\243\274\027U\247<}HX\274@\360\336\274(-\271\274M\017.\275_,\023;\036\201\'\2740\346}<>\360\n=\253\346E\2742\272q\274\020E\270<\014\323\203\275\'\234\034\274q\333\025\275\203\362\240<\2235\203<\264:r=\230(\"\275\372\326\353\274\250\205&\275\326\277\200\274\254\305I<\021\223\203<-f\317\2740-W\274\240\225\307\274\321\010\217\274\260R$\273|=\020=:\2749\275.Z\260<\311\311s\273\310\317U<\020X\r\273\370\260\336<\341\343\255\274\252\243\303\274\267\347\324;\346\207\016\275\036\367\276\275\226\271\365\274Qe\215<\373R\247\2747\373L\273\342\253\017\275\211\377\266\273\026\344i\274Ls\213=\211\306X\274!\222\353\274\342\275\025\275\264\224:<\376\356\326\274`\301\245\275d\024\037\275\363\337S\273\020/\323\274d;\273<\331\362\t\275\215\317d<\272\333v\27565\351\274-\260\317\274\030\013,;D\320\376\274\315\340\227<\255o\027=\346\317\233:\344\006\331\274\316\275\272<[\343J\275\177!)<\272@\331<w?\306:\246\300b<\212K/\272\351;\361:\013\301\242;\353\341\266\273\335\271\247\274v\235l\275\212~\313;\334$\264\273\237\354\355<]\\l<\036\214\316\273t\024T;\332\255u<V\207K\274\267\027[\275G\007\027\274u\341\000\275\363#\2069o\037\343\272\320\374\271\274\300~\245;D\250O\274$\367d:7?S<\376o(=\334\304\315;\'\2308=*\371>=$w\332<Wt3\275 \337~<\305\347z\272\ts\263\2748\217\276\273\205\222\267\273\261K\306<\032\"#=~|$=\351\262\316;\354\034\001\275\373\003\246\274\2362\214\274xU\214\274\243BD\274~S\036=\272_\247\2749\214<\275\030\242\273<\333#\236<\372\223\350\274\337\343\347\274cJZ\273\214\303\347:B}\251<\2140\253\274\224\267\\\274\315S\335<Y\322\330\274\r%\022\275\r\376>\275\376\372\247\274\304z\347\274\037\345\202<\026z\324\274\0329\223\275\003b`;rk\202<de\252\272\274\024\004=\273Es<\037\301h;\000\232\205\274\270\t\001\274\303\005\021=\211\356\346<\370\370\020\276\367\233%\273\264\2624\275/ta\275\3762A\272\370\333\276\274\244\216\207\276\005-\300\274\271\336\265\274\261j\004<\345\177\320\273+\207\225;\"=q<\007\2124\273\177\2778=\276\237[<\257\343#\271\003\304\232<7~\221\274|\315/<%\3049\274m\030\214\276\243\217\351;P\227l\274\302?\211\273\203 \177\275x@\314\274uG$<\324\025\014\275\027\222\231\274\313\r(<q1\014\274M\300\242\274\206\260\016\275\207_\241<\304+\003\275\352]\206<\233cH\275\320\331C\274\233\025\233<k8\236\274erp;\261\362\211\274\274*c<\317\333;\274(M==\"4\220<\023J\370\274\002\321>\274\375R\356<\026\252%=\254=\022\274;F\320\273\275\246\314\275rT\3149|\205\227\274)\364\030=F\262\323\274\2036]\275\257A\320;E\254T:7\251\025=.\307\001\275d\201\322\274#\312.\276mE\330;o\232==\\\206\330<\315*\234\273G6^=\201\033\215\276Ds\035=\341\260\211<\033\274\013<\177\337;<\200\0001\274\342Z\337\274\235\232\372<\374\226\322\274\034\316\223<\nv\020=\366\223N\274H\212\311<P\346N:D<_;.\352\200\276\210`\036\275\241#\245<\201\030\210;\035\010u\274\\\340\216\274H\303a\270\362c\232\274\227#\013=/\342\t<\351\0036=\033+\364<\271\272\022\275\370\276l\274\362<\301:\004\030\261\274\327\251\316<D\361\005=\237\343\027=X\372\027=]\211\272<F6\343:\210\332\356\274a\213\010=Q\203\335\274\327_T<\220\207w=\005=\313<\2327\2679\001-\004:} \242\274Kf+\275\310\276\033\275\336F4=\353\021i<\037\034I\275\267O\241<\263\340+=\333U\241\274\362\354\215<\320\275\322\274R\322l<\221\332\375;BM\000\276\261\'i\273\351\007H;\342H\310\274\353\310\3609T\023g\274\352JD\276\361\224\224<R\\\304<\225\305\234<\360\023@\274\315\265$\275{\301\301<\200hQ\275\221R@\275\232\r\026\275M:\330\274^k2\273n\204\271<HP\205\274\344eg\274\243{^\276\377\247x<U\376\365\274\211a\023\274\323\300\252\274\304f\247<\336\274\353\274\211/\237<\003\320\021=A\234\311\274\253\216S:{\323x<\266\351\310\271\256\377\250\274Z\005\210\274B\207\r\275\365\231\313\267i:%<\205\226#\273*\216\005=\271\336Q\274oc\266;d4\266\273I\353\266\273\'\n\253<\340\214J;\213/\2379\314\315\320\274\352X\r\275\022\332\r\275\032\254\211<\241\235\311\274\300{A\274\2314\342\273w\210\032\275\271\374\345\274\027\341*=\n\315\315:\263=d\274z\371\203:o\210l=\273\002\021<P\231^\274!bx\276\247A@\272h\035\035<\363s\n=\234h\230<`\351\371\273|G5<]\272\026\274\332\374\005\274Xw&\275\321\003s\276\327.\033\275k\242!<\301\237\023=\217?\223\276\177\tH;\005\025\351<\t\376w\275\021+\276:eS\014\274$<7=@|\273;DjC<\357a\275\274\361\330\241\274\030\306\232\274\341\373\311\274Zj\246\271d[\003\271\316\271\215<\320\211\235\274o8\372\273\\Y\346\274\241\000\364;\306\227\236\275I\"\247<\350\247\031=Z\235r\273G\336c\274\270E\227<p\221%;\022\227\001\275Eb\232;t\323\342<\232J\312<\237\3425=\244\374|=\340\231\245:p;\376\274\241!\307\274i\375\020\275\367q\305\274q(\331\274\2511A\275`Wu=\362\311M<\327\225\304;\317\335\004\275\241\223\333\274j\033\020\275-u\344\274\376 ?\275\266 \360\272\313\010\375<\032\361\225\275+\234\221\274 9#\275E\317\024\2757\n\342;\307\247[\275\213\227D\275\255\205J\274\320K\256\274\364\205i=\245\300u\276\250\326\306<\3101\277\273\256|\325:K\221_\276X\234I\273\261\230\177<D\034\254\274\333\370\301\274\026\025<\275\013\241$<1Mz<\361\206\010\275\334\212\327<\026\221\t=\r\203R=G\262u\273\026\362\333<b1\210<\224\314\'<\014\240\234<\305\243d\274=l\214<\373\357\201\274\262\373E=\202\\u\274CV%\275\251\036\262\274\2231\221<\346T\257<r\363\216<\353\277\376<w\245\215\274\306\364$\275\272\205\027=;\206\364\274\211_\261\274\036\335\214\274\317\321\026\275\236\213\234\273E\"\203<\234\320\270\273\013\377$=X \r\275\276\033\307\274y^h=\374\243\"\275\241X\007\2756d\013=\365i\255<d>\231<\360\325a\273\205\335c:\317\016P<\206\027\250<\352}&=\210Z\254;\354\307\237<\234\204\013<CU\271<\023\021\345<\267^M\273\207O\037=\026\363\220\274job\276\035\241\335\274\020\027V<\321\3206=\264/P\276\325pd<\353B\230\274\263&\242;I\375\261;\346\222C\275LVk:\213\264\325\274*fa=\307\365\035=\366,\253\274\337r\273\274\371\001r\274Bn\032\274\206W\030\272\261\231\225\273\237Kf\275\002>H\275Hm\350</\024c<Db0\274\014\342\361\274\006&\023=\356\204q:\347\240\272\274\000\346Z\275/\207Q=h\346\311\2742\212\244\275\340\210j\274\342\370\314<\202\223\024<\212\305\224;3\0340\275\r\310\364;\340/\360<2\237a=\243\336\016\273\350\2727\275l\265\004\276\223\r\013=\2307\\<d\302\275\274Y\344\037=Om\004<\366\244r\274V\001p=\230\317\245\274\320\260\364\274#\0226\274a86\276\301Z\035\275\326\241\246\274\336h7=\371@\253\273\327\231}\275f!\305<\005v\334;\350\023\272<\235\250m<\211|*\2740\353\224<2\"\033=\347E\340;\261\271\232\274\265D\210\275\034[\314\273`&\247\275\266\262\214\274/!D\275\236\373a<\224\252D\275\263\024%\275\035\016\004<\031\314\271\274\215V\323\274\377\247O=\241\317\342\274\006\373\016<\244d\240<\273/\303:\020V\201=B\r\355\274\277L\010=\344\361\013\275+\313?8\273\302\351\274\232\373\360\274\007\307\310<\">;=t\037\033<\000\334\014=\276a\361\2747\010\313\273\233\361\374<\311\220\272;.\362H\275\357\255\202\274xh,=X\261\245<\025L\037\275\331\332\014=D\245M=\233\033\006\276\255\\\237;,\351H\275\362\224\025\275\302\035\372\274\333\363\";\377\034t=\227\376T;\317\307\241<\334\3452=\253\003\344\273$Y\013\275NMO;u\350\210;\367\340 \275d\030\256<7\347\273\274\245\256G<\227\344\\\274\014I\370\274`\221y<A)\221\274Cbm\275e\236\367\273\356\3046\275\217\210p;A\321\273<6\357z\273\332\205\362;x\3523=R\352\231;(\000\372<UE\274;\224\322\356\270\361#\r=\225\305\350\2742\007x;\321\013\007\275$\362\021\274h\275Q\275}\357K\274\265!\343<\342\2744;\227m\307\274\223\306\001\275l\2152=\277\027\316<LJ\202\274\005@~<\337d\016\274W\312\332\274Vk:\274\275\000\007\275u\306H\275\014x\320\274\276\345\014\274{q\200\275^lb\275C\005U\274,\026P=E\317\322\274\365\356\'\275\270J2\275\220~\005\275\021vv\275W\352\"\275\023g\001==\340M\273\007\230<\275mk\277\2747*\317\274Qd\022\275\315\241\341<s\2520\275\027\326\200\274\302\334\377\273\364\334\226<\341\263K\275m\302c\275X\rA<8\244\277:\230p\254\274\254\362v<\026\370\005\274\036\332\036\274\021\017\313\274N\214<\274\225A\230<i\266\202\275\262\322P<\370|^<\332\367\177\272\3528[\275\300\377\006\275\216\340I\274\300\320\353<I/#=\243\205\001\275h\231\233<\004\307\364:\030OL\275\326+\377<\225\022F<s\036\335<#:\035\275f\261\035\274\362\252.=)S\222\275\350\325\035;\254Z\354<\227\373\216\274kQ\375\274\322y\322<\013\207\321;@\004I<\343r\005\275A\351a;\352\330\276<\266:!=@R\t;\236\254\021=`\331u<\020)\342<\036\331\234\274\342\256\356\273\266\315\r\275\201\360\021<\014y\007=\205\001l\275\274\301\274<\267\007\373\274\245;\251\274\004\017\033\273\247\233&<\244Xs\274\017bK:\320\206\t= =\351<\240\255\023\274\023l9\276\320\3760\273g\003H\275\206YQ=\036k\240\274\200P\230<`{\314;V\264?<{/h=\016\364\313:\006\270\356<\211?\343;\"\035\251<j\020$=\272\023\'\275\361\003\241<\247\320!\275\373\302\232\275\356ZQ\2752oF<\252Q\225\274wa\200=\2510\273:\200\020\326\274\254=\243<6+\001=`5*\275\344|?=[\3617\275\371\304\307<\373\273\337\274U_\272:\240\322\305\274}\026D<|N\020=\262\227\027=\014\304g\275\277\276\245<\242\252\270\274/\"\365<\260&\363\272\335\226\252<&\\<\275\345~q\275\373TN<g\312\213;\210\025H\275\213*\000\275\225\235\245\274\204\301k=\007\243\242;\233\014(=\255ir\275\207\212\007\276~\236\016\274Y\nN=\241h\310<\007\305<;q/O\275\300\021\275<t\232a\275\3224\023\274E\356\224<C\031I\273`\267\275\274QA\010=\\\277\255:\206<\302\273_\351\031<;\267\270\274\004\026Q\275^_\260\274\355\220\222\272\213\177\261\274\022\3173=\346\2628\275\261]\027;\324\330e=\213H\244<T\351\014=7\347\226\274\354rg</\030\262<\032\200\260\274\317RL=\203)6\274\360\311\265<q:U\275\026\016\004<\302#\205\275\021\\\214\275`C(\274i\275\226<\202\353\007\275\250\377l=\371ky\274r\343\205;\244\260\257;i;l\275c\335\177\275\221\n\177\275a\263\000\274d&\304\274\327\244\326;\261.\265:R\007j=\222\030\026\275\267G2=\247\367\007=b\212N\275JZ\035=,\302h=\327\\\r\275\032\2248\2754\031=<N?\026\275\220\214\224<W^8\275\360\226A=Z\355\211<W\026W\275\025\220\001=\367\331\030=\261$\236;\244\010\006<3\252#\275s\312\242\274u\026\241\275\230\367\273\273\322\262\'\273L\234e=\305L\023<<|\366<\304\221\t\275\265\037\331\274p\376\003=|\251l\274\360\231\344\274\311\236\304< \037\007<\345@\241;\341\214\032<\342\205J\274l\303\365\272\220\340\215<yj<\275\3203\036=y\324G<\362\235\001\275\361\026L;4b\014\275\260\016\244\274\367\216\000\275\237\211\353\272\2772\016=\333\210\035\275\356\352\330\274\375\2517\274\355\242B\275\006\352\260\274!\177\337\275\212\374\312\2748Y\361\274\274 \315\274\205\345#\275\217?\246;\251\274\200<fY0=\341?\333;T\340\206<\020\365\365\274\311L\343<o\356\032\274&\242\255\274\363\373\026<D\257\005\274\2706\367\274\313\300\226<\301?u\274J\306\271<q\313\366;\335\312\221\275\235\245h\274\332T\275<\t\233\332\274\014\347\330\274\356\205\270\274VL%<Z\2456\275\371l\014\275kQ\206<\2624i\275\247 \027\276\334\023\030=\351\361\202<\242\271\364\274\022\353\006\275q\355\201<\370\333\027\275G3\300\273\346\214\313<6\327\323<\257\322\035<r\013\206\275\266`\024\274\346\357\312;\366\245\276\274\347(\301<\271\n<=\260\264\233\274\241\207\r=Ao\373<\3101\034<\277e\213\274\256\377\316\274\215\2469<\007\261\264;\313\321\231;\260\2156<s\026\036\274\213\000J=\230\205\203<\231\204\304\272\233\031\217<\305\260\224\275O\332!=\371\377\020\273\333\227<\273v_\214\275\244w\344\274&\321\253\274!2-\275C^/=\264S\210\275\177i\325\274 3\007\271\031\345\342<\206N\312<\017\3101=w&\230\273\234n%<t\263\347\274#\027Q<\267\207\037\275M\333\"\275\213\345\273\275Fz\245\274~+\026\275\355\001\n=\214\325\003=\317\022\377<\357\005\013;\232T\216;U\210\214:\212\017\301\274\315\277>\275;U\206<9\'\345<\327\213\033=\365\234\222\275(5\224<\253\260\035\274\333G\267\274\312+\367\274p\3222\274\234\316\376\274\035o\331\274\030\177@<Bp\031\275;\001\254<`\030\366<\002@0\273\366\311\021\275-C\203\274\327\0300\275\326\356\364\274;\204\373:\344d5\273\223\005\200\274\244%q:\336\204\315;\337\353?\275\230\004\226\274m\344\364;S\243\204<r\273\025=\177\342c\274:<\265\275/\367\331\274\253lL\275\032\374\237<\306\030\373<b\334\027<i\317\376\274\272b\000=\"]\031\274+\002\210<(\264\"=\257Kc=\271\356\352\274\266j\234\274\211C\200\274\374!V\274@\245\327\272\364\375t<\202d\356<\223\321\342\274bO1=\302A2=\373^\232\275\265v\245<\235\026\300\274\3468\241\274\"\207\275<R4\320\274\275\234\357\273\371\204\243<\354V\031=Y)S<;(\264<\255\210\021<\260r}\275S2\341\274?l\323<T\010*=)\235\t<P\307D<uD\223\274\357wM\2733*\036=/\324\006<\223\312b=\213x\242<\363\325\003\275\256?!=\203\371\263;\334?\344\2746\353\265\274\356T\005;#\377\250\274\2170\232:/A-\275\022\305>=\270\314f\274\332\270\223<\262\001\013\275\324\367C\273\304\337\253\274\350\'\222\274sa\356\2724V\202\270<@W\273N\301\253\274\220\036\246\274Bp\206<\211\342\023\275w\"\233\275-\200\230\274\210_m\274Qe\261\274\254sR\274I\003+=\325\264\254\274\177\277\340\273}R\277<42\\\275;b\224\274\237QZ={\353?\275g\317\243<\217\204P=xCX\274I\343\005;\302\036,\276D\212g<\315\005J\273\232\177\321<\006\nJ<\270\311\315\274\362eT\275\357\256j\274\231l\021<n\231\304;-k\355\274\35074\276\032G\251<U\360*=\201<\261<W\336 \274\277\350\223\274Ufg\276\306\254$=\003+\346;\357+\227;\212v<\274\276\330a<&\323\257\274`./\274\261\312\270\274x\3058==\016\025\273\'\360\r\275`\237+\2757\310\357<\224Bu<}\201\205\276\333\032\341;i\2071=C/ <\223\240\231<\363n|<\341U\203\274\351\206\013;\030\376\333;\257\336\224\274\276\354\230\274\000t@=\256\2108=\271\337\306<\252\022:\275V~\346\274\034x\217<e\007\311<\027\2170\275\255;5<\231\3516\274\250H8=\000 \025\275+ \r\27598\262\273\313\234x<\2359|\274\377x\37799\331\014\275\373\353=\275\r[$<\023\270\023=\314\364\263\275\365\227\003<\205#\213<\206/\333\274dA\002\274\t\243\010\275\003\256(=\027M\235<D+\217\274\330\277\226\274l\022\375;\244F\017\276\250\301\224;\273\200\003\275B\t\235<\3554\343<D,}\274V\361\211\276\037\251\225<\270qF\274\262<\265\274\r\324\200<;\034,\273\200h\361;\033\376\304;\227`W=\023\261\257\274\007\025\326\273\313R=\275f\007\200<\316\376\t\275\240\253\242<\222k.\276BZ\304<\243\3111\274t\342\005=B\363x<^\334\212\274e_;=K\014\332\274\211\356\032\275;|2<\037\324\034\274.zN\275\204_\315<\243\270\036\275\327\014z<\365t\020\273\374\3133\275\355\035\324\274d\304\326<\377\273\201\274/\327\031\275\311\210\017\274\325v\357\274\377?\027\275p\221\347\274\222a\315\274\332o\352\274K\265\245<s\003\266\273\023\212\275\274\223\314\316;\006\016@=_9\306\275\207\"2\275Q\371\271\273\027Nm=2dJ<\323v\010=f\246\326<R|1\275\367Z\262;a\235\220<\262l\214<\037\274\016\2766\325\216<\234\006Q;U\014\223\274\251kN\274\245\365\341<\254V/\276d\305K\274\232E\347<a\351\222<\035j\021\274\\L\350\274&\351\022\275\010\253(\274\002\026\230:\273G\355<a\336z=;\333\235\275\034\351\335<c\316\220\273\245.\356;\353gb\276|\023i\274\267\375~\275\024\365D\274\275\265\033=\344\242\315<\342j\030\274Lu\001\275\241c,<C\300\262<9\270;;\024)\000\275\267\033I\274PQh=\260C\210<\220)\260<G\365$\275A\330\200\274\355\230\003=J\372\263\272\342\367\364<\361t\371\274l\272\026=]\247l<\323I\017\275\2120\354\274\327Y/\2740\375=\274}\357\000\275\333\232\203=\275S\010\275,\366\000=\340\277\t\275oDt\274\222wm=Z\322\356<\341B\324<\314\030\t;:\251\253<g\276$=K%\022<\353aU=\021M/<\026\321\207<\361<`\274\272\034\037=\376cC\275\302\301\327\274E\375\350\273\200\020\023\275\ty\211<Lc\251<\277ND={\303\\\276\317\315\365\274\3754\373\2749\027\033\275`9x\276(G\350\274\305\267r=\330\rP=\306\237\304<\353\332N\275\332\313\373<.\261\326\274\021\232\203\274\255t0=\224{\231<\325\177\307:\215\231==%\363\234\274\206\2520=mN\037\273 \034\"=\223\356\350;\031n\357\272&S\377<\3579\036<\277\200\311\273\336\n]\275&(\251\273\211=\355\272\334y$\275q\311C\273\205\337\033<\217\241\\\275\t\236\206<\002\212$<\377\2260\274\3311\225\274\217$2\275\314wO\275f\315]=(g;\275f\312\374\274\000\265\375\274I\217\020=\374\221\375\274\324\311\272\274\355#\354\274\221r\026\275\274\334@<\302\375X\274\273\216\313\273\257\034\001=I#\317<\001\227\013=\3337\206=^\361\276<\002\271\016=\275\324\203=^\205]=h\355p;\204*&=c\342\001=\273\215\356;\272\253\026\275}cg\276\202\257T<\310\031\016\275\027$\241;\013\311]\276\030Y\257<\n\024\250\274\215h\220\274\274\343\t<Pn\030\275\000\016\013\275\223\036\206\273\352\313/<;\374\233\274\267\344;=o\301\201\275]\024\276\274\3127h<\365\035G\275\200\247\376<6\361\220\274\231\262\241\273\'\316\023\274%\345\227;\020\021-\275\257\370\234<\362\232T<\326\366\014<\256p\365\274\216\242};\005\001 \275\263\024e\274`\316\\\275\031\267\000\275\305]J\275p\006n<\224\312\365<\335D6\274\366A\025=\261\243\207\274\177\320\025<`V\222\273re2=(\t(\274\0146\276\274\246\252n\275w\373\255<{b\244\273\302\315\024\275\336\321z\275\314\3374\275h\256=\275\364+P\275\335w\225<\220\337*\274\207\250\026\2737\342K\275\337W\350;U\307\037\275ar\204\274gXz\273\324m\210<z\362b\275\325\222:=`\001\204\276\356K\366\274\277\261i\272\001\214\t\274Y\312q\276\277vi<a\246K\273%9\234\274U\024\254\2746\250l=\337c\224\274{>\022=\\*\211;\177d\'\275\033 \276\274\355b\240<A\350\310\272$\014\275<\206\314a<\246\345/\275x\215\232;\035\242\003\275\247T-\275\342\005\262<f\365\240<\307\307\270\274\362\200\006\275^_\202<\204\nN=\326\364X<g\277U\274&Z\313<\346\321\235\275\2347(\275\013\267\036=\246\376\266\274\224j\031\274\313p?;\020\315)\274_\002\004\275\250-\205\275\265\247\223=\355\230\360\274o\364\270\274`}\223=~\031@\274C\377\022<L\304\243\274\3157\376\274\342E\006\275t\245\2709\273/\350:A\345\262\274|\302$\275\n\332\206:U\363\027\275\210\351\261<X$\362;J\351_\274\016:\337\274\210\242\220\274\300\221\327\274x\242g\275\017\225\371\274\242\356\002\275N\301H=\301aS\275z\010\350;\177D\241<\265\010l\275\360\242\323\274J(o\274\363\364\t\275g\231\201\2750b>\275\253$\245\274\003G$=\330\354\214\275\033UL<s\242\245\274N\352y\275\333\262\215\274\014\3309\275\026\002r\274w\337\250<\337\202\301<vo\007=@\204\021\275\206qn=Mu\027=\366\233z\274\250)\007=A28<Q\242P<&\210\"=\337\346\317<\254>\323\273\334\351\026\2748\024_\275=\0239=\370\266\353<\202\177\240\275\263\210\020<\354\216\210<\332#\225<\"\300%\275K\316/\272\312H(=\277?S\275\302>\376;i#\377\274\273S\207< \263#=q\345\203\2749\277)=+n\000<:\202z;F\210\365\274\257\201\232\274\261\006\017=\244Z\264;\033el\275\360\334\235;\305\313)=\2220\370<\312\255\215\274e\363\256<\237\3371=\220\343r\274\007f\034=\367\006\003=\357}1=k\277\033;7vp\274zuF\274\026\266#\274\224Y\361;\264\310\230\274i\204\355\274_1\035=\\\204\270<\024s6\275\334\304\261;\266y\357\274\246\245\240\274|\033J=\330\241\002\275\235\203\351<\345\361-\273\001\020\241\275\0005)<.\303$<\341[\223\275\331\315\272;]\236\001\275\225\364\302:\001&\007;\24344\275o\200Q\273\316\006\224\274\370\370\350\2746\267\031\275t\216G<\320\221\010=\034X\243\275\274\347\326<?{h\275\322\333\010=T\335\213\274n\255Z\2741\023};\217\325\353<\205\324Y<o\324\3159\247\352\035=\231Y/<NP8<2\207\005=F3\263\273\016\026\037=K\202\027=B\251{\274>\311\006=%\032\311\274\214b\323<\372\027\037=\032A\236<\274\3428\275\202\310i<\352\026\276\274\234\204\026=\305M\030=\205Q\002=\tF\024=$\336\374<\275\2355<@\325\262\273\213T\333<\262\'p\274\0068\225\272r\026x=<\226\302<Z\024\201;J\014\310\274\212\341\276\274G\010\023\275\022,\216<_x\256<\026\356\263\274\036\177\343\274_F\340\273\233\304P\275{<\243\273\0174=\272\267;\240=\207\344e\274Mo\343\273\226\347 =\"^\203\274pto\275\022\017\340\274\255D\006\275#\303\237<\364q\\\275\363^\363<\213\272\033\275\216\3702\274^\310V=t\327\022=\263\026\206\274\331o9<\243\032\236<6\212S<\216%\376\274\034\'\300<\001J\324\274\272\277\334:\003\036\321:&\357\220<\346\337\023<\010* <r\333W<%J==\344\260\234\274\203\035\"\275\354\020\030\275\030\004\250; \200\300<A\232!<\220\252\217<\234;\2269\216\222\034\273\301/\215\273~\362\356;\332\305%=C\316\202\275ky1=\307\001\227;x\307\314;@\271G\274\346\236~;\277\2661\273\206>\322<Bn.=\332\022%\275\036Iz<\005\240\233\274c\344\344;\250\013\373\274\006\343>\275o\2559\275w\013\267\274\266\376\263:\362\371\306\274m\260\303<S\203\213\275\256G\020=/\316G<s+\214\275\314\010\362<\373,\261;\341\237 \274\250\022\275<\254\022\215;\334\272\020\273\241\035\247<\354\037\\\275\303\321*:\370\t\237\274\"g\317\272Y\016\325\274\006\320\027\275Y\322=\274\276\0242=N~I\275#\247\352\274jO5\274(\'\206<\202\252\252;\305\006\001=P\022\367\274|u\211;\006_\374<\'\346\030=94\264\274\262x\320\274\376\276\315\274\"\270\210<\270K\030=\004DJ<I\001\255;\345d\023\275\021\203\234\274\214\327v\275u\354\300<\007\363\033\273\331\021A\274\375\203\260<A\005\037\274\265\003-=n\243\327\274W ?;\363\255\272<\321\226\n\274T8\355\274\013\305\017\274\307\315O<\374\342\351\274%-\342\274\340N\375\273~\312\263<a-\332\274]\333*\274\025\017\252\273\230\364\264<\354`7\274\023\340\033\275\340\300\025\274\025\242-;\317K1<5\016~\274\201\345\360<\302o\355\274\007#\223;[\322\201<\273%+\275\266\033\037<+D#\275w]\352;\3312Z<I\326\367<n,K\274\036Pj:\347j\307\272\004\244\005\275\237\247\210\275\354\362\020\275\365=\255\274\234\277h\274v\3537\273\204{\256\274*H\241;\332-\371<G9\227:-\r\007=\243cL<\031\207\275<\263\254\033<tyt<aZ\000<5\205\002=\362\2113;\024V\024\275\031\363\222\275]l\340;H\242\327<\302z\010\275KX\032=\326\032o<cI(\275\236r\003\273\034\350;\274\021\364\033<\243\246\010=d\355\221\274\232LD=H\307\017\275\266\010\200;\023UI<.Fc\275\321d7=/\256\373\2740\227F\275\016X\337<39P\275A\026\r\275\021\3555\274S\2643;:t\216\273\222)\001<\277G\215<\332\257\037=\341\361a\274E^1=\2720\346\274\336\213\313\273\275\354\010<\r\027\311;r#\263\274\017\315%=:\364\224<\'c\260\274\314\036\037=\364\306\354;L\026>\274\367\230W<\311\031-=\207)S\275\236\251\025=\321\r\260;[\001\n=r\315K\274\244;\210;\003\212\310\273\334\013<=\371\334\t\272l\351\223:`\340+\274\032\005\022=\"\343>\274\345\225 \2757\372\013=\207p\374<\021\276\n\275\203b\340\274\365\314\341\271\232\247\245<\346J?\275\260\213(\272\250\367\240\274\342\345\321;\373\227 \273\217\260g<\236\223Q<\205\371\227<&\324l<\233\"\257;\036W\022\275\2004\3679\264\303\325\273\021tQ\275^-:=\236\306\211<\260=\033\274^\203\225<\261\033\031\275*e\237<\231\354%=\002h\203\2744\353p=\031\316\230\274P\310\311<\266T\223<\004\006$\275x\233\201\272zR\261\274\230F\303\274X~\014\275h0=\275\255\343\235;\244\316F=+\234\021\275\324\260.\275\314\373\002;>\007\021<\330<N<\226\006\210=\022\301\324;&\341&:bN\\\274\326$+=\t\r:=\n\255F\273/\034\265\274\265\3128\275\021t\022=\276o\333\274\027\005\322\274\315\265s\274\3177U\274\016\035\277\274\326\301J<\216\177\031=\270\230\t=\270\014\322\2745\\\005\275\225E\026\273\321\214\363:\376\347A=\364\\\316;~\307i\275!\215n\275\277^2\275\315L\202\2739X\241;\371\350\230\274\325m\021\275\334\237\241\274\033}{=\024$\024=\233\231\325\2743\226\204<h\236\352<t\201\014<\327\347X\274\224\270\003=B\031x\275\376\275\023\275\355]k;Mqb=,)\013=\361\020;\275\250\027Q;\356\216\003=n\271\016;\263\214\026\275G\261};\343w\006<;a\031=\312\224\221<\021(?\275K\354\370\274\007\005\376:p\301\217\275%\371\034=\362\241\300<\242\264\212=\364zM=W\\\367\274\371\356[<\325\253+\275~\333\'<\257\\><%\263\257<\017\305\263\274\005\246\200<\225\244\026=o\311\247<8\220/\2749\252+\275\310\026\303\274\024`C\274\246j\214\274\267\353\271;\354v\320:\217\3361=\025\364\022\274\026<\021\275\016I\264\272\310\212\315<\267\231\022<\305~\211\273\312\374\247\274\037QY\274\032c\036=\007\306\213\274\245\355\016=\242\316t\273\0279\304<\242\305\032<\216\230\227\274\243\340>\275\235G\207\274B\340><\220cy<\335fy\273\222\377\025\275j\237$\275\333\277]<\003\372e\275\"W4;zMK=\214\370\263\274Z\316\375;\202\274\030\275T\262l9W\022\017\275d\334\t=\217\305f=\235U:\275R\013\251\272\364q\307\274\273\321a\275t\367\004\272\342\254\036\275\375\007\306;i\337l\275\000o.\275\177\207\304:\000\275\354\273\372;\035=\030\r\241\275\370G\352\274\216\314\225<m{\t<\322Yj\274\036\370T\274\213\036z\274\000%\251\274\2103Y<\266\336\003\274\302\341\366\274\300\252\212<q\200]<\264\222\307<\034f\300\274\000\345\036\275\365\246\345\274\367\031\342\274Z\033\033<\245\363\362\271\233\332I\275J_\243\272Xw\026=8\260\021\2746\3364<\2711^=!Bk<\'\035\001\274\265\361\263\274\215\336T\273e\024\207\274L\272\\;\360qD<\334\355\215\272\316|\354;\241\320\202\276\357p=\275\037\033\355\274y\315!9\201\2723<[\220\"=0&N=\233\232\233\272\001\346\027;\272\376\031\275HHk\273\226\225T\275\251\324\000\274\324Y\250;\315h!\275}\"\243\2768\'W\273\257\274P\274\003B\345;\036o\013=\235\301\007=:\2670<\350\026Y\275\245\'\322\271\221\272\010\274#D\023=\023\334\326\274E\364C\275B\372\202<R\203\'\275)\263\355:\221R\027\275\333\262\336<\331\273Z=Y#s<\014*\006\275\247[\220\274\325\215\261\274L\203\013\274\376\3746\275^$e\275s\344\227\274+\305\017=UM\324;\315b\227<\330w%=\252\305*\275\265\177\037=]+*\275\320o\n=X\035\001=\206I6\275\232\203\024<)b\201<\025l\317;\3606\220\274\313?.=\375\262\202\274\025\273P\274\022\021\002\273%\204\r=r\3170\275cbv:\317\230<\275*\370\217\276\362\324\351<\216\301\335<\361D<\274\271\223\232;9F\367<\216\335\350\274#\302\352\273\312%w\274\347d\300\274r\273\310;O\241\241=[\305\272<\225+\006<\226?\204\275\335\260G\276\262i\275<\321\377a<\370\025\n\275\231x\035<\034n\020\275+j\324\273;\345d\274\010fe\274\206e:=\357\263\275<\tx\374\274\236\326\016=\2529\301\274\3022+\275Zq#=>\363\003=JPh\274u\347\353<\230\264\253;\235a\"=\'\345\246\274n\320\310\274\220tP\274\272\364\362\2745%R=\177\313\030\274\030\242\211\274\207\367\352\272\347\030+=\276\200\351\273F\302t<cW:\275\355\375\347\274S\260\020<\300;\276;\036\343M<\177-F<T\030/\275\235}\321\274\274\002\232\273\206\304\204\274\324AX<U\316O<\2323\254\274\325\360J</)G\275\'p\322\272\360\237-=A\033`\276\204\0261\274\030\322\010\274W\356+=\026\244\t::7\026=\021\361\027<\372\204\233<\237^\256<\216\2637<1\350A\274\2526+\274\332\305\027\275R\005S<\275\014\253<r\031\204\276VS\324\274\310\221\277<E\214\324\272\374\263G\275\311\010\362\274]*\311<\214\032\2159j<:;Q\200h;H\334\n\275\035\321\352\274<|\363<\307g\242:\264\274;\275%\3558\274\254~m9\240\016\236;\035:\374\273g\021\311\274\255\304l\274\375$Z\275!S\200\273\343b\257;\223\371\010\274\227\256\315\274\r\023t=\236*\214;_V\025=\016\'\303<,/\267;I\366\237<\321c\214<\036I\026<\034\3564\275\363\230\252\274\321\020\322<\n<W\273\005I\251\2736y0=\370\324\026= \217\256\275\000`\010=#?\r\275\340\370\221\271\rL\310;\374\364Y\274P\024\204\274\245\273|\275\036X\343\274\"\345u<\303K\372<\001\360*\276MX\237\2763\026\332;\373y\255<\370Q\030\275\342\317s\276D\010g\275\371r\000\2754\316\236<\373\222&\274D\2040\275<\265\257<H\363\003=\211p\256<@B\030\274\320\346O\274\"\236\014=\\\341\005\275\227\267\351<\027\332\374\273\nYr<^#V\275\246`U<\206t\006=\245\315\247:\315b\016\275\254\373m=h\234\235\275^\220-\274\210\366\027\2751\303S<\256NA=\006\361\023=\227`\224\275J\205)\275\331v\033\275.\301\347\274\032X\214<\265\r\365\273\2575\365\273\317\241\231;\300\\\020\275\346\025f\274\3153y\274n\207B\275M\214\246\274\371\271\373<\021lN=p\302\001<\315EK\275q\361\002=\301\305\332\274\233Y\\\275<\000\337\275\257\216\022\275+\344\035=\376\203\016=\237\023\351\274q\221e<\305\222-<\224\326M=m\342\227\272~\344\270\274VTG\275\307\022\364\275\023>\226\276p\274\333\274/\270\362;\311E\366;\330\207a\276~\325\307;\272\363\213<\315!\323;\0009\307<d\':<\347\200\343\274\026_\301\274.7><\245@^<\267\226\225;\201f\265<\027g\231\274\361\366\216\274\273m\233\272\340\225P\275\006M\371<\316f\316<\231\213\030=\0071\242\274\335$P==\r#<6\353\240<\035\004\225<\363\277\204\274\300Fl\274\300\002\016\275\216 \223\274\275\374U\275\247BL<\324[\233\272\301\310\035=!!\277\274v\346\016\274\235oU\2757\033\221\275~\231E=\220\025\026<F\0103\272R\3112<Vf\r;e\222\322<\264@i;9\250\036\275\353\003\r\274O\316\307\274\254o\327<\217\213\343<jR!\275\000W\344<\374`\216<\220\314\t;\226\267\013=B\304\002=\n\033\360\274g\275\306<\013\353\237<\246\014\242<\251L==b\350\240\275\273_\207\276\316`\267<\364&(\273\022\t==\210\220\202\276F\246=\273hn|\275\262vH\274!a\210\2741\260W<\004\031w\273\020\307-\274\202_\035\275\246Qf<|\242\333\274,\373\251\275\023\253\211=\306%\023=\236|7=\311M\356<}\230\264<2\362\r<#\214\331\274(\237\006\275\200\303#\274\345\'\032\275\266\nb\275\006\347\277\274\366\327O\274R\030\205;\227\275\357<\021\273\347<M\"\203\275\303\337\024=\212r\031\275\201\027\350<\202\317X=\376\240\306\271\316x\000\275\217\370\245\275\2045M\273i\007.\274\227\313\201=\311\310\310<\n\2313\275\346\261\233\274E\033>;T\t\001=\036 \330<v\031\336<\032\254\247<\237\0045\273\266\305g\275\366yX;\346f6=\306\232\273<A\323\325\2721\331\316\274\275\201\373;D\324\025=A\340*=z7\307:|\251v<\374\332\r\276,\375J<!\275.<\362\0167\274h\301\013\275_\375 <\030\021\217=\200\224\020\275>z\t=\236\260t\275]9\335<\347\310!\275\2143<\273\254\366G\274\243\034\234\2753\331\003\274e\235;\274\225\345\375<LK\342\274\341\261\030\274:\225\026\273\263\014*\275\332f\010\274\2616\006<\03344\274\227\201\212\274u\313\024\275B\306\225\275\352/(\2750nK\275-\300\'<mcI\275\201\0148<U\032m\275rx\237\274\201\306\206<W\326\224\275\340\206F\274\354\304i\275x\346\001=:\026\367<\370I\265<\356\t\346;B\322\016=\227\006\212\274\241\3676<\316\244\003\275\037>\030=M$\320\274\225\352\212\275\020\362\234\274\241W\025\275\372\351\270\274NK\255\2755\345\362<\352{\371\274(\014\026<\366\3626\274\307H`\2747\314\305<\306\226\007\275\3119\000\274\223\311\344<\271\023\031\274\243T\272\275\263\262\230\273!\305\222<\312A\273<\"\342!<X\2622\275\243g:;,|M\275/\0311\275\307\277\301<?X\030\275\002\313T\274\374\211\314<G\327\017=\t!\367;,\257*\275fyr\275\344K\r\275\212\010\017\274\034t\336\273 \344\275:\275<F<D\232c:\001b\034<UU\241<\347\316\304<\257d\320\273\271`\346<5\271\206\275\325\023\203\274Q\356\004\2759\233\277<\025?\231<\026\225.\275\022\t\331;\201\355%=\350\270\177;j\306\200\274\225:B\272hcv\275q\266\340<\375fD\275\001\210R\274x:P\274\303\221?=\003\314r<\007\355\031=\204\215\201\275U\230\230\272$\261D\274$;\362\273\320p%\275+!S;\005\032\254\274\036\272\016\274tk\270\274\207\006\023\274\351\343\273<\233\2166\274\003\220-<e$\300\273\"\325\236\274\230^p\2747\017\013;L\244\037\276:\002H\274>\300\271\272\315\2271=\317G\025=\030Z\273\274K\301#\274MXq\274/\347\027;\342\000\264<wK\025\2750\363*<]\332\262;\3612\024\274Y\263\2548\210l\010\274\376\320\362\272\232\213X\274\004\340\314\274J\300\242\271YV\361\274dv\355<\3313\002\275/3\273<\321j*\273YO\260:K\026\312\274\306\337C\273s\325\223\274\335\200M\274\242\303\301\273\335a]\275\314\212\004=\220\020\343;t\372\366\273Czw\275\251\036\225\273\030\3475\275\343\317R=V\010\370;:[i\275l\3700=-\003e<\347Kk\275\363\252\216<\305\317\024\275\240F\211\274c\357\214<\346ZY\275`?\002=D\347Q=\371\007\201\274\315j\017\274\362w\230\275\351\277D<\265\370\325<0\033\014<\020\343\351<\347\343p=\241\333\035\275\334p\233\274\037]\314\273\317\335\254<K\236:=\003\206\271\275\203\377\260;\212\212\366<M\305\025=\001\237\251<\030\222\345<\203@0\272\032\361\353;{\352\000<\207e\224<\325\354}\275hn\220:\227\211M<\315\350`<[\244(\273t\005\211<K\225\377\274\323\221\306:\227J\370<\254#\305\274ig\341<\273\203\230\274\323\364i=\200\341\224<\005Li<\250F\300<\3058\220\275\326\212\353<\3548\305<\204\356\320\274]v\367<\316\267\344<\310\257\310\274g\tl<h\203\030\275\0343\036=`\006\343\274\345\200\333\273y\240\013\275XDk;\2346^\275\n\323k;g\201\020\275\265\304\'\274C\277\004=\212S3=)\210\267<:\325U\274\200\265\t=\035\n\026\275\226\327\322\273\377\235\241<\254\346\334\273\250\236\233\274\020\317;\275\330\307\374<\001M\301\274\224\354&\275\022\370\\=\314\000{;\372\034\024\275\036\267Q;0\255\"\2752\244\276\274\324\211>\276|\024#=\262*\002=\024\323\213\275C\005\004\272c\2654=\233\216\227\272\203\036\236\275\010a\263\274\234\312I;\271\222\341\2742^Q\272(7\020\275\034\332H=mt\216:\214\370\203<2\024\322<\025\223R<\t\300\304;\231\370\225\275j\315I\275\005\363\344\274\2628V\275\"I\303\274\217\311\306\274\316i\014\275I\2626\274\217b\312\274\307\201*<_\031\037\275O\223\213\274\004\r(<\002\331\272\272\353a*\274\244\355\232<\000\364\352<\236\246\010=Kc\213\274\225\330\372;\367\007$=\250\203\001=!\366\363\274\365\264\025\273\366\0176\275\306MQ\275U*\031<V6\206:\2130S\274_S*;\2212\253<\'\337\216;F#\216<u\346\337<A\231e<b\275\203\275\314\341L\275\254\204\026=\313\302\367\274\214\\\016\275\316t\034\274X>\033\275\013\305(\275\261\037:=\372\267\336<\234\223\200\275\260\271\307<\257e\037\274T}a\275\362\275K\273\022w\262;;9\237\274\222\340\230\275\302;2=\r{\017\274\313\366\252\274j\360\341<.\360\325<SM\026\275z\017\204<\366\004\001=\327\352\263<7\215\020\275\356\035n<9\313\213\274C\217C=JW\025\276\355#\253\275\226\242\357\274S\213\001\274\221\366\363\273A\305F\2755\362\374:bP\r=\253p\027\275\323c\233\274\334\227\014=\263\224\017;{\350\227<(\3474\275\251\360%=\341j\223\275T\"/<\341/\310\274i\365\r=\334\000B\275\030\344A<\035\331c<\256\211]<\304\227\237<m=K\275\240iX<\200\325h\274\2056\241<y\033Y\275\265.M\274\013\326\250:1\1777=\027t\227\275\320\332\354\274-\276\036;\310e\246\274\004\002\332<\332|\010\275/\001j<1dK<T\234\371<~\232\254<\276\265O\275P\006\205\275\254\355\003<\325|\257\273\n\365\307<\360T?\275\246\246\004\275\3236\026\275Q\244c<\177()<r`\017\273\n\010\035<\331v4=d\010+=\245\374\215<(\244\212;\014\020\353<\326y\355\274\033\265\025\275/\222\377<$\333\017<Mz.;\213\232$\276F\301\010\276?\377\252<\013\3150<\215\035\254\273\363\3643\275\030\242\000\273\206\352\215;_\201&<hT\361<c\324\244\274B\260?<\273\353\277\274/9\031<\322!\216\274\0326\002=U\310\"\275P\254u\275\317PQ\275i\260d=\3245b\273\317\305l<\0315\t\275S\003\321\274M\257A=(\226\255\273\343\347\374<\325\374\335<\242{\366<e\177f=\n\257,=\023(><\030\212F\275\272\242U\275\3224\343\274\002\230\254\274\373=-;\007\235\321\274\332jA\273\216\0223\275XU\024=\347\343i\273^\365==\376\325\033\276rq\351\272\324\320Y\273<Y(==x\211\274\277\200!=l\335v\274}\266w\275\246\013]<\201\323i\275\325nR\275\210\333\r\275\201\033\206:\251\316]\275\346\243\r\274\273\212Z\274\257\256\240\273\325 \022\275\323\374\334\274\205\310\'\275\207\255\031=(x,\276[e\260\275\027\347\301\274+]\355;r\363\364\272iL5\275z\255\330<\316UD\275wS\222=\363\037\320\274\320\243\266\273\326\202\000\275z\200_\274\300\003\341\274\351m\247\274\013.$\275a\212B=J#\007=\333\205\366<Y\325\022:\305 k\273\302\205\206\274\207\203\270<>L\216\274V+\023=A\307\347\274\014Z\335\274\207\322\000=\003\237~\275N\r\211\274\"\300\205\273\357u\354\274&\205\246\275\363\350\027=J,\014=\321\002\303<\311\326\034\274\025\355\014\275\250\233@<\324\362@=\324\010\361<\256/E\275\234\370y\275\034$\010\276\217\252\033<;\302\'\275;\356m\275H*\234\273\373\177^\275\033%O\273\006\352\306\274m\n\373\274\220>\017=\320\262\340<\307\027w\275`\374\375;\331\342\007=\250K\360\274\234\276\206\274\354\031\266\274G\216\223=\323\265\001\275\355u4;l\312S\273u>\354\274%7 \274M`\364<\275?}<\321\374\352;\300k\013;\305\026\001\275K\202\034=\374yg<\257\256\210\273\255K+=4\313T<bv*\274\350\230\350<\251\310\261<\324\016M\275\202\216s<z\001\014<$\233\272<v\311\374\274 \262\201\273\273)f<Z>d\273\2102\340;A\"\031:\221\370\316;w}6\2754\027\032=\327\314i\274\017?S<R\243_\273\302\325\251;#E\330\274Rc\005\275\001W4<\002\351\215<\367\377\355\274\263\375\251\274Q\2321\274N5d\275\360\nL\276\242V$=%\n?\275\3249\336\275\020\237\212\274\315\374\266\273\366\001\345\274\236\332[<I8S<\243\277\357\274\326\311\224\274\013\3344\274S=6;\201u&\273\276=\266\273Y]\246\276d\335\006\273\362g7\2756\216\000\275*\030\215:\335z\212\274\231\226\271\274\000\2440\275\370\326\253;\260\022\004\276Q\334\030\275\2030t\273Z\322X=\346Vf\275\036\322\022=o\343\372<Iad\274R5\202\275\347\314C\275\303\014\207\275\022{,<5^H=\2645\231\274{#y\273\335w\204<\317\256\034=1\377\273\273\036+\214\274\232\234\207;\352\360\301<\r\266t;*F\321;8 }<\276\316\200\271&cE<\306T\351;\033\242.\275}\027\371\274\251a\207;RW\201\274\347\267\244\274\3104\033\275H\036F\275\ra\362:\270\026\312<m\235\374\274\231\200\337\274\';\006=\032\030g=m\006\216\276\374c\200\274\2563\354<-\035\333\2759\'\335\273R\267\220<@\202\373;,\216\233<p\327\242\272(\274\341<\032;#\275\037)\364:hR\351;Ap\005\275\311\226\007<P\342z\276\262w5\273\022\323+\275s\372\033\274elh<\211/\023=9c\235;\361\323h=l\002\356\272\247\261\326\275i.^\273\314\017.<\266\215\027\275b\240\341<=\031\335<\257U\'\274\025\020\\\275\335\323\007\275A\316\326<\230\363\265<\256\224\345<\367\"\002=\374<\206\274\214\312\211<\\4V<4:v\275{U\337<\326;\027\274\033V\300;0\3039\275>\200\021\275\262%\035\274\361\025\221\274\213J;\274C)\335\274/Z\335\273\245\346;\275gR\335:\342\246\226<w\327L=\313\364\004\274\255\027\366;~]\215\275X\310\354\274\311\275\343\2731\237\354\273`\014D\274#F\227\274V\331m\274E\263r\276Kn\255\274\034\016\377<j\376\371\275f\202\357<,|\351;\354\326\247<g\315\251;8\255\211<Y\031\020\275\272\373\231;[\320\325<:Y\377;\007\001(\275O\277i<)\n8\276~\310\017=Iw\274<(\2515=\257\225\"<H|\006<\231\234?<\372a\007\274s\344\030=+\344/;\236!\233<\002\371\261<\237@\374<\351\032\202\274m\262\025\275\006\3049\275\351\\e=8\221\255\274v\027\306:5\035q< \027i;\023\0222\275A\203\245\274\037\215\323<\005\356\"=I\377R\274E\266\226\275\222\240\205\274\024\340$\275\242\273\336;O\306\204\274u\034*\275\315\234\227\274\375)B=\251?\020\272*{\253\274\240\266`\274\373=Z\275,\220\034;6\321\344\274!2\014\276\312\034\214\275\002(\n\275n\255\373\273\301y\t=FV\211\274\002r\032\275O\331\326\274\211!\006=\363\266\325:Y\370\340<p\236\320<@\353\205\275\361\341k\276\274V\n=\360\320.\274\201\270V\271\321\231\231\276\253\343\021\273?\002A\275a4\023\2757\230\236=\213\237\024\275Q\027\345;\332\332\245<\225\3732\274\227\245#\274\230\314\251<\236.-\275\213\030\211<\310/:=\317\377\010\275F\355\022\274\306!\n=CX\000\2757\225\013\275lk\021\275>H\037=qE\013\275e\023\303\274T\241\001=\003\372\000\275J\230s<\'\035\316\274?*{<\350\276\244\274\302\236\037\275\025{\034\275\232\264#\275T\016L=v8\327\275\332^F<\333;!\274\332\270 ;%6\217<\036\231\324\274\025\234g<\366o\366\274\270f\207\273\035\272\327<\035K-=\2205\001\274\033\035\335\274\361g&=\022&\366\275\352\212\266:yP\030<\211\240\301\274D\224.<\366\027\035=W\023\006=\301!!\274\210\256j\275\316\232\214;NF\254<\3239\263\274\275\232\252\275\200]K\276\000o~\273\213\346\013\275\265!/\274\r\320^\276\230\261\007<$\251\343\274?q\356<\267o\037\275\274\353\n=\177x\207<\331B$\274\200W\217\273D1\236\275\004\234\344;\201>(<\204\336\037;?\260\000\275\255sv\275\\)e\274\014\355\234\274\351\221\016=\244\016\3768\010\030%\274z?\222<\222\203g=\251:\016\274-\242\371\274\227\211%=\242R\343;\207\214\221<0^><Ma)\275\230\234(=\210\2455=\215\305\333<\3726\216\274#*\337\275\375\2035=\0076W=\025\032\326<O\'\226\274\372$Q\275K\317\311\271\270\337\230<Y\326\333\273f\003\030\275\360\227\324\274\221A\314<\364%\033\275|\236\207<j\214\n\276\267++\274n\275\027<e\310&=\350W9\275H\372\374<\204s.\274\321\201\302<Mf\342<b\320E;\234C\006\275%\250\000\273\350wi\275\007ie\276n.\300<\302c\370<\343\342\216\274\316\344N\276>L;\275\314_R\275\341]$<.\255\351\274\302\362M<zw\363\274!\363W\274\232\342\352<\337\303\304\275\367%\243\273\2020\351<[\032\332\274\370\304\035\275\001\235\242<\244\331;\275$\323\217;\266\360\024=rX\021\275\207>\367<\367\332\233;\353\373\000\275JV@\2759 \304\274\224\353\001\275c\330\216\274\311d\360<8!\213\274?\310\022\275\032\213\310\274\033\013\203\274\021\237\326<\360\372\230\274~\333g\275\3368t\275\265W!\275\245\306\211\273p\372K=Ef\224;\325\004P={\342\320<\211j\202<\006\367\327;6se<H\377\213\274\315E\377\274M\237\202:\014\022(\276\357)\233;\001\014I\274\001\252\311<3I\276;\213Zx<q\037\314<IH\326<\200k5=OAs<\240p\266\274\366K\036\275\203\262:\275\023\265Q\276W(\250\274\323\254\210;\001b\031=\033\014\203;`#Z\274\232\024\014=B\244x\273\222e\032\275Y\255\023\274\203\2429\273\263\234\217\274\237o\221\272\303n\005\275\347\033\207<UC\017=X\353i<!V\204<\363\220\256\274,\303\343\273CQ\337;\345\034v\2750-\314\272\3241\241\274\307E\n\275n\351\r\274T\313\206\274Y\032\026=\251\226\376\274\370\275\374\274\221\024$\273\324\302#<z\010\024\274\334\3509=z\3460;\371\345V\275c9\025\275\020\024\277\275\233p\242<\364\r\231<\37033\274\021:d\274\037\200\023=o\345q\274v\227~\274V\245\261\2730;#<\265E\303\272\036\367\200\267\245\2041=T\203\003\275l\341\377\275\0002\205\275\247u\024=\251\027Q\274\240q\177\274\203\272`<.\333\025<4O\n\275\377o{\275\342\360!\274g0\207\273\230\200\272:\026\275\211\275\333hR\276j%\017\275R\346\215<\203~\266<#tg\274\341\277\013\274\274b~\275\371\243C\274\030\276\260\274\354\272\0009+\024+\274]\257r\274\030\255e<\021\255\351;L\033c<\241\256\247<?\370\225<\311$u\273\340.\034:\246\261\241<7\231\212<U\370\326<\346\247\301<J\t\205\274\307\'\026==\251\222\274?]\221\275\333\213>\275\217\3100=\306\265K=\374n\000\274\301)>\275b4\222\2740\344\267;\243\247c<\020\364\016\274\210$U=\233\006\364\274\3163%<q$\r\275\202\303\267\274o\370R\273Uc[<\243\352\357;\274\001[\274\2279\206\273\020_\246\274T}\354<\0179l<\302\017\276;o4K=\247\301\005\276\261\"\014\274xfs\275Z\236\224\2743\274\211<\"J\251\274\031\211\207\274n\316\235<L7\r\274\202\205W\274\243.\241<@zj=\327i\327\275\235\204\035\276_\370\241\274\363p\314\274\275\352\271\274\031u\260\274\307nb<hk5\275M:\320<^\265\037=&\'\020=\250F\227\274\277\337\000=\2378\352\274\264B\034=X\375\304\273\204\331.\275\260\230\222\273!\253\271<\233\372K\275\317\201\351;[\321\342<\222\3301<\320X\346<\025\036\203<\353\362\007\274ziH\275<h\027\275L:o\273r\005\013\275,A\264<\263y9<v\257\020=>\3028\275W w;\217\273\260\274d\253D=\215F\023<\244N\353\274|\370\333<\025\036\323<8\364\036\275c7\240\274\344\367\360<\213\247\000\275\203\351\002\274\320\315\247\273\255\251\337<\000w=\275\305\355\245\274S\244\316\273v\302\023\275\3126\026\276\316\254);\201!0\275\0175\350\273\242\244\275;\r\035\031<\370\t\000\275+D\035=\221\000\033\275!\212\010\275\226\215\0139\253|\256\274\330\257\250\275\225t\335;@\216H\275\336\273\330\274@=W\274X\211\365\274\275\273\3458\376\376C\275\233\252\211<\230\3524\272\262\221\307<\353s\001\274m\350\367;\322V\230\274Q*\200\275\240|\004\275\367\343\252\274\337\323\275\273\t\266\235\274\003B\013=9\235\236;\373\205\216\275\334\233r\274\366\326\214\274P\t\376<R\322\035=\331\352\374<_\237:=!\361\t\275\324\327\243<\024V\027\274{\177r\274&E\000\275hB\362<\0139\272\274\263\371\345<8\354\235<\210\017\305<}\313F=cF\"\272Dt\212\274\317d\025\274\254\261\260\274\271$!\275\r\373\241\274\031\023\017<]\244\303<\344N\006\275\r\274\340:\305\255\254\274\313;\312\274mR\017\275\023\265\211\275\003Ky\275\357\033\016\275\200\303\310\2749\026\367<Q\261W\273\206!\346<\3001\017\274g\312\354\273\221\n\023=\235\241\221\274q\301G=C*\256\275\211\361\302\274\201\235M=\025\220\247\273\242\006\217\274\377\025^\273\031Y*=\261H\200\274f\212\016\275\250~V=\214\034\334\274uc\234<)\260\235<Q=$\275\277\334\017\275\033\371_;\026U\037\275\017\234=;\355\310\237\2732\231\005\275\004\003\014=\365\357\321<\356\244\007=\'#5<\203\372\253<^*\344\274\232\3625\275\256\220\300<\035D\357<j\000j\275\022\312\377\274i\246\272;\364\2021;\306\355\320<n\266A\275\302\256\356<.\310\357;5\252\316\274\245\000\247\274\243\037\025\275\311v\032\274e\371(;/Z\354<u\2720=\r_O\274mw)<\371A\004\2742L\335\274\231\217Z<\223}\024\275w\262\035\275\2050\252<\277\204\225\275\016\335\032<\227d\206\275\351\006\252<S`\372\273\345\332\242<\200\365.\274\211\301\235<\265\0219\275\366\267\370<s\265\361;\320D9\275\227\245\003\276)9\217\274N[N=\177\032\240<1-\311<\217\241\366<5O\211<\0318\365\273m\355\006\275\2127K\275\002\245\347\2748\034\267;\205\316\001\274-}\211<\306\203\337<{\205\257<\037\245\331<\316i\211<`\360\000;h}B\275\000\206\361\272+f!\276\301%\251\275\214*\367;\031\"$\275x\024$==\004\326\273\324\360\203;R\220\241\2741^\240\274e@\252<\352\223Y;\335&B<\342 \024=/\027!=\207G1\273&\235f\275\371\273\204\273\244\365S\275\'~`\274d}\177\2713\2053<\nG\025\275a\275\307\274A\316\334\273\267N\300\274jU\252<$`\250\273\303\343\337<f@/<>T\'\275y\273y=\367&\001\276u\360W\275>\275%<\374\343\215\274\234r==\001\246\312<\316b\225\275\034\371\360:\272\215\200\274O\270\305;Y\024\023\275\370\252\302\272\324w\275\275\235\224\345:D\351\256\274\202))<\345|\362<\351\322\000=\235cO\273\320\024\203<24\n=\224\"\235\274o\234\331\274S\002\307<\263s]<\006\005,=(\004n:\377\2447<\222P\256\274A\245\301<\010\360\373<\265aE\273\216\304\351\274\212_\007\276\233\026\r\275Z\325z:A\370\247<7\014\377\274\300\036\253;\210-\327\274j\326\037=\243\245\232<\236\221\253\273o\212\261<\023\022Z\274d=\375\273m\002\276\274T.\006\274\226\366R\275\034\026\323:\224\250r=3\224d\274e.\261\274\312\261\010=\322\037\306<\240\322W=\375Y\010<\272\035)=\221\001N\275\3179\3139H\227^\274\177(R<Z0n<9G]<u\362)\275\357\267\376\273\241\373!\275\002\2658=\375\305c\274\016\nv<\277T\256;\242\363\017\275;aE=s2\214\274\317\314<=\270|X\274\013\223\311\275\212\033R:a\267\032=\234~\376;\262\177\233\274\275\322\342<\375\033\2549\266\024\211\2757\344\237\273\000Z\333\273\230\302\371<Z\254\'\275\364\337.\275\022\254\023=\252d\313<*i\231\272\300\313\250\272\266h\232\274\031M\246\274\356\036\025;) H\274\356FC\276\230K7\275~\233]\274\337\326\366\273!\322Y\274\364\276\r<\025p-\274\007\343\221;\202\301\202\275\237X@;0z\220\273aG\275<\216-/\275\322\":<\227\306\333<\3474\024<\247\233w\274\307?F=9_\215<\245F\t=\032I\376<\263Y\247\273K9\024\2743\317\014=\262\317\207\274\241\363\242<\330/\252\274\023\270\361<\266 \243\274D\303\331<\370\205\027\275\203\242-\275\334|\223\275\344\010\234<q\230\004\274\375V\300\274T\336\347\273Y\344\374<\3355\352\274d6)\275y_z=\351.!=\333\341\027=\020B\241\2753\225\201\274\304\276\271\274A\237\266\274\027M\313<Z\311\267;\013\205?\275\211^\207\275LI\320<\225\371\006=\231t\254<;\267\002<\005N\262:\016\341\020\275\340\362\214\275\240\373\236\274\222\207\375\274\025\023\253\274\375\202\250<\211\022_;\350\275G=\371\207V;\016#\235<q\222E<\352\320\256<\260!F\275\340\373\010=\271\366\303<\260}\031\275\016A\376\273#\301\231\273J<g\274\353A\325\274\377U\362\274%\245\354</@\033=\n\t\251;\240C\"\274\334[\2047\342\270\237\274\217\333\007=\214B\030\275Z\3122<\257\035\370\273\334\001\205\274z\205\004=kG7:!\302\004\274gG\220\274c7/\275\313r\374;\177\351\267<J\370@\276\235\305\312\274!UM\274\245Ms\274M\352\250\274M\0247\275\250\021\300<z\3307<\211\372\026<`l\202\276K|\353\274\017;\335<\256s`\275vD\223\274\037\334%\274\'\005H\275\204\257\264\273\314\243\276\274\327\034\300\2746\240%\274\253\251\270;\231\004\001<\304\353\212\273\347\254\026\274M\333\220\276L)b<\212\231!\275\375\203\000=n\225\266\274\264\325\305<\212\032\347\273;\206\221\274\260\350\362\274\033\026\207\275\236\233V\275h\314\007\274_\005\005<\037\355J=u\013*<\207F\033<od\265\274\314@\004\275\3414\r<\3073:=\033\211[<2\232\226<v_\375\274K\314\314\274Fj\031\275@\325\260<A\206\330\274+Xv\273)\310\343:\360_#\275\024?\361\274S\346,;;;\217<\305\214\212\274\202Z\307\271{\275\341;\014x\205<\347\267\234\273\005s\032\275g\267\013\275\273\216\235\275oq1\274\375&\277\273\316\0046<\202\025\303\273\322\301!=\246^\204\275\221>\235<\343p\265\274\304E\220\276\301D\270\274!d\262<\326\370\347\275\300>\010=?|\233\272\373\234(=\204XI\274\266\021\235<\233\352\022<\364\322e\275\314\223\231\274\327\262S\274\214K\231\274\324fK;\244=\232\276hL\010\275\253f\225;\327e\233\274\353\221\223\273Q\014S<\226c\302:\007\005\'=l\314\2579\220M\351\275\252\261\2058\262\244\233<\302o\360\274hC\262;H\211\236\274\311A\235\274\334\001D=P\327_=xN\020<\\\270\033\275\032\010\316\274\366*\336<\341\001\237<\207\320\300\274\002\347!<gz\004<\206U\341\273\035R\035\271d\221\270\274\320e\031=\216\212\033=G\033\r\273\353U\\\274c\213\023\271=\232\261;\317d\254<\202/\245\274\250\225s\275JV\212;\356H\346;\255\3534\276Oq\212\275Eq\021=>\303\217:2\253\224<\271c\021\273\374\307\001\275i\177A;\235\275\027<\363\244x\276\211\355~<|I:\275O\221\244\274\322\332\333\274bG\013\274%\236\210<c6x\273h\010\335\274\005\270\211<Z\032\224\2753\314l\273\317\354\273;\306\017\250<;\222\375<B\004\234\276\202\005\207<!\332\204\272\227\303\031\274l]\204<\020\337\340\274<\016\307\273\026\023}:"
      }
    }
  }
}
node {
  name: "Conv2D"
  op: "Conv2D"
  input: "input"
  input: "Conv2D/filter"
  attr {
    key: "T"
    value {
      type: DT_FLOAT
    }
  }
  attr {
    key: "data_format"
    value {
      s: "NHWC"
    }
  }
  attr {
    key: "dilations"
    value {
      list {
        i: 1
        i: 1
        i: 1
        i: 1
      }
    }
  }
  attr {
    key: "padding"
    value {
      s: "SAME"
    }
  }
  attr {
    key: "strides"
    value {
      list {
        i: 1
        i: 1
        i: 1
        i: 1
      }
    }
  }
  attr {
    key: "use_cudnn_on_gpu"
    value {
      b: true
    }
  }
}
node {
  name: "BiasAdd/bias"
  op: "Const"
  attr {
    key: "dtype"
    value {
      type: DT_FLOAT
    }
  }
  attr {
    key: "value"
    value {
      tensor {
        dtype: DT_FLOAT
        tensor_shape {
          dim {
            size: 64
          }
        }
        tensor_content: "\366\004g?h}\244\276\251e\212>J-\213>\352\320\032?\307\337<?\236\365\307\276\300\233\324>\212 \237>\360\337t;\20355\2757B\014\277=\263\361>\n\227\'?\246\">?\031\361\315\275\003\323\314>\260\202h?\263\271\360>Q\224\300>\005K\326>\\+m<a\347\200?\217\n(?\366\335a>\272R\367>t\033\025=\352/\361>d\324\246\276\201\263\267\275\023\220\373=x\357\317\276\376p\363\275W\rQ>O\\\225>a*o\277\335\016\006\277\033\347\322\276\362G.>\230\314!>\222x\014?~\240\202=\026\210\333>Y\267\220\276n\316x=6\316\257>\017+\016\277\217\320\232=\026I\252>\026`\000\277\306\024\007?\324\207\000?\267\267a\276\362[q?\344\310\204>4[\265>.E\033\276\237\274E>\277Q\222>\275\220\334>\334\241\350\275B\205\332>\314\376\035\276X\023\245>"
      }
    }
  }
}
node {
  name: "BiasAdd"
  op: "BiasAdd"
  input: "Conv2D"
  input: "BiasAdd/bias"
  attr {
    key: "T"
    value {
      type: DT_FLOAT
    }
  }
  attr {
    key: "data_format"
    value {
      s: "NHWC"
    }
  }
}
node {
  name: "Relu"
  op: "Relu"
  input: "BiasAdd"
  attr {
    key: "T"
    value {
      type: DT_FLOAT
    }
  }
}
node {
  name: "Conv2D_1/filter"
  op: "Const"
  attr {
    key: "dtype"
    value {
      type: DT_FLOAT
    }
  }
  attr {
    key: "value"
    value {
      tensor {
        dtype: DT_FLOAT
        tensor_shape {
          dim {
            size: 3
          }
          dim {
            size: 3
          }
          dim {
            size: 64
          }
          dim {
            size: 32
          }
        }
        tensor_content: "\355\021\375;MT\253\273&]\271<\272$Q<\tK\354\273\303\\!=\226z\001=\206\243\251<$P\313;R\313\016<\271\302\341\272\025@\231\274S\t\244\275o\205\233<\341/\264\275.\264\226\274\\\204;;R]e=S\274#\275\000\223\005\274\032YA\274\207}\365<Xd\364;-\013p<\177\273\"\273\244+b=Rdl=\033\016\332<LB\205\275vU\320\274\013\010\262\275\227\323A<\252\"N\275u\300\326=\330\257\016\275w\255\210=\272\225\022\276U\306\372\274\017\004B=\305/Y<\323\202\017=h:\214\275\321/j\275\022\007\243\274\'\355\375<\227\245\004\276\315no\275C\177e=\275\312\013\275\320\231\207\2742\345\226\275\021m.>&]\200\274x\013\305\275V\347<\276\034\367B;\362\226\347=ag&;%\036;=E(Z=\304\267\347<t\005\010\275\266\377\215;\177-I=C\364\344=\261\260\204\274\224\370\236\273sw\016=\215\256\245=\250\337\005\275\260\241\356\273\214\214\275=&O\264=h\254A=\351\032\257\274|YH=\351R\304\270\374\364^=*\031\022\275\000\001\362=\265\020\242=\301\256\222\274\\\006\213<\253|\253=\315R\034=&B\247<% \211\275\215\213\234\274\023\226N=C\213\010=\345\305P<>\242r\275\375\177\234<\361{\312<)\005\236=\335^u\275\002mj9\250f\243;9\226A=K\353X\274\337\326\300\273\215\177f\275\037\310=\274i\211~=\371\201\247<\347\221\016=\332y\235<\006\227\337\275\013\275\360\274\350\032\340<\335\236\220=\354/K<\305\307B<\017\323\031=\0325\006\275\334\255\262<Z\230Y<\273\306\267;\221\177\266\273%\303C=\323i\037<\r\356\336\275*\230\r=\004\261\200\274\301F\303\274_g\n\275\211\247\204=\212Uc\275\303nA=\030\263\003<y\3475\272b\312_<\\\307\325\273\225\003\261\272\014G+=\316\221\014\275\030\263\024=LEx\275\212\220\346\274\316Y\267\274%\245\023\276\221\035\324\274S\204U\275^v\272\274\350#~<\251%\203\275\277\236~\275,9\242\274\025\252\333<_\026>=#\250\317=\014\303\270;p\"\341\274\377C\222\275j\251\376<1\363\216\275\034)\014=\371\030\206<z\336\213\275\266j\251;\017uJ9\2610\027=\333\025\001\275\355 \232=K\366]=\310\'\302=%G\263<<\363%9!\226\203=mlS=?D\206\272\225\326:=\302\023\216\275\010^\306\275\211\330\210\275\310\222\204=.\322\373;\013\345\030=\213,\210;\221\243A\275uJ\200\274\364\232\222=R\tr\275\023\234\236\274\002\030~<\023q\314\274&w\227\274\3574\023={\330\303\275&\225\257\271\367\030\342\273VM?\275\347_\255\273\2727Z\275h\322\030\271P\376\256<\336!\322\275\352\230S\275}\341A\274\266&\243\274Y\247.\273\024\252\310<vp\207\275\306/9\2765o\343<\307\312/\275\272i\233\275\035!\030\275\331V==\023\030\206=\322\347\205\275\010\025\374\274\207\335\230<\345\264\222\274)d\311\274Q\231\220\2742\237\n<\364\026y\272+\354\313\275C^\256=;\032\251\275.\345\034\274\216\2159\275\213\307R<\242\230\200={\344H\275\333I\003\273\343\312\214=5\022\236\275\204\270.=\033<\030;B\021\261\275\232r\362<Xo\337\274\213W\233;{\024\014=+!P\275\276\276\202=\356yx=~`\227<\310_\307\274\244\024e=\306\2474\273\003\303\014\275\023y\n\275~\337a=\035\177\360\274\rE\237=n\221\216\275}\034E\275vL\207\275\030\0051\275!MH=\207\000F\275\232n\227<0Iq=\355\362>=\262_5<\027B\233<\256\001\321\274\010\275q=\345\034P=\265\315n\274\260\202H=6\275b\275~\327G=\367\237/=8\r$<#P\022=\213!>=\315\303\250<\2574\216=\216\375\345\274\277\343\331<?\306\311<J2\236<\346\311\204=\327\335\217=;\311M=tu\032\274\352\030\274<\006\324\036=\245\273\240\273\030\235\352\2732\177[=\3208$\275TK8\274\264\367\357<\365WL\275\377\017\254\274\304\346c=\304f\312\274sl\031=V\3479\275\307b\003\275y&K\275?\272\\=\326\261)\275\274nX\275\340{\n\274\033+\367\275\356i\252=O\233\321=\271\023\351<\353\343#\273\202\007\313<-\323\313\275\372\3504=\341]>=W\010\266\274\242J\272<\236-!\274\355\242\205=\322\243<:a\3278\275z\000\034\275X\320\243\275\217\313\356:I\347\213\275+\255\364\274\374+\030=\327\315\370<U\327\217<\364\301\"=\244i\374<\334\202\031\275\244\266\211\275\223\022:\274w\332o<\035Xp=\333\004r=\370\333\216;_S*\275)\351\235\2746\010\223<\246\363W<\305\213N\275\235e\335\274\275II=@\034\272<\212X\034<\212S\\<\221\264(\275/\323\031:\316\006\372<\231^\243\275/\022\330<\312\031\251\275\'Y5\275\335\364\246<E\022\223\275\002\217p=\003\313\250<\301\021K<u!\242<gm9=\320\314~=6\r\353\2755xn\275\311u^=By\321\274T;\326;\213\223f\273\002Z\342<\220z\231\275\351l>=\262\325w\275X9:;oH\034\274\027k\\<J\245z=\321\\f=M\364\366\273\211mv\275\330\346\370\273b1\037=\007\030\t\275\032s\036\274\272\260\317\274\263P`\275r\004\033\275\354\307\022\275\234i\003\274F\032w\2749\2564=\020~\217=\3675\357;\3774+=[\002\030=S\321\014=o\305\003\275\372h\277\274\312\t8<\301FO=_\236I=\373:;\275[\272\372\275\205\203\332<\346\013\334\273\224O\010=\375\177\217\275\254\351A<$\243\345\274\003\026l=z\036\\\275\t\346H<\220\327\254=\275\376L\274F\343\237<\321\342,=\036\337^\275\256\266\244<qF\270\275\032\307\326;Bt\017\275\307\024L=\237/\006=;\001\260\274|\301><l\306T\275\301|b<\317\367;=\003\356\351\274\270[\033\2752\240y\275\247I\2519\"<\013\275\367\276\321\274\245a\216\275\235h\026;\354\207\017=\205<\022\275M\235\206\275\031tJ\274+=\'\275\3646\215::\256,=\344\007\363\274\372\372!<V\215\331\272\306\343`=\307X\244\274\351\214\325<\210\025\276\274\203\204\031\275CE\346;Vi\212\275\\\214^<8\207W\2754\210\302=\222(\025=\2068\r=\236?[\275v\265\027\275\333P\375<+\300\263<\327\016\340<\240\341\006\274\333\373H\275S\362\202=\352[\227\275dq\\\274\207\236\005=\207\210\002>\254\316\352<\360\320\344< \244\241\275\032h\016=\027Q\227=\346\241P\275\330L\214\275\000\347\344\274I(\244\274M\201T=\016\372K;<PM=\320\233\\=\273\035\335\273\206\3502\275o\360\271=\002\260\234\275\261\244\234<\217i%\275\354\234\252;\226\352\200=\225\341\356\274\213\342\027=\373m\'=\317\017s\274K\230\005<\346q4<\023x};QZ\222\275\306\374$\275m\240\212\275\023\364\214\274\324;-\275\177j\362<\203\'1\272D\204l\275\260*\376\274sT\242\275@Wz\275mQ\276<\n\344\222=\027}\030=m\257\366<\261T\276<\367\212C=\312\224\257<Q\007\227\275~\305\022\275\021n\266\274\306\237\232\275\030\367O=\305\317\353\274)\346\203\274\207G\301\275\315\242\336<\307\251:\275K\\\254=\316_\033=1w\223\274m\307I=\021\236<\275\337/\276<(\022^=e\254\223=\205\356\013\275Uy\313\273\003\324\277<\r\376\275;9w\014\275/l\000\274cJ\311\274L\356:\274u\222-\275\231\r\212=(\255\202\273\367\202\310\274\237\342\307\275\353\250\017=\007\344^\275o\231\310\274\335\1774=\231U\037\275\324(\006=\326\2304=\316\002\t=\3647C\275\307\337\032<\242\200\365\274\005\344\216<\331\000\275\275s\276\034;\021P\233;!q\017\276\227\n\313\275\360\214==\271oP\274\035\335\253\2748\327;<\3659Z\275nv0;\325\321\002<\"\021d<\310\235\005\275q\221\006\274\3515\216=\006\233\315\275@g\211\274\236wJ=\250\004\250\275r\330\027=\020\215\216\275\343\354f;_zs\275w\350\017;S\022\226;\302\261\211<\026\265\224<\230\010\357=\367\302\016<\2702D\275\001\247\223\274\202\204g\274O\027\350<P\r\315;\250.[=F\310\337<\227\217k\274\205l\267</\363b\275\341c4=\317\025\013=#\026\316<\002$\025\273\031\370V;\277a\234\274\321{j<\207\322m=\350k\316<\246\265k<\272\227\210=\341\351W\275\003i\014\275\034\311);\205Bk<\377Y\332<\017\326\034=\3049H<,^\262<\252\250F\273\367\337\225\273\024/\013=\361\347\022<\022\311&\2740-\026\274\325\260\277=\004\372Q\274\370\'C\275\277\225U=\354\277\212=A \002>W\214V=\372\262x=\002\326\257\274\361Sm<\220\022\325<\007o\237<\223T\026=s\207=\275\001\032-=\226\000\334\275\025\363\336=\223\022\231\2757!\r<\234\033\351\272\360\2219\275\221\006.=\027\374d\273\231\020%<\007\020k=\200\357\274<\271@\251\274+\023\254=\017{f<\367@\223<\243\362\026\274\214\252^=\356\205H=\027E\200\275\016\205u\274S&-=\'\304\311<\372Z\322<\210\327\376\2742\346\010<\"\320\362<\255b\000\275\004w\246<6\234&\275\305A\214\275\022X\006\275\260\245\267:\007M\005\274\035\004z=\2230\231\273\327,\305\274\325\244e=5vh\275I\'\223=\3412\005=\003\020\212\274\n\311\317<O\237?<\256\265\203=\200\006\n\275p:\231<\371\261F=\371\353\215\275\302Z:\275\326\374\201<%$\270\271\023\342O;\023\242&<\345t1\274\276\315d\275\030\254F\275o\2549=\202#3=\315 o<&B_\275u\322\003\274\022\231?\275C\340\003=\304\264H<\223|Q<\373\247\031\275\360\303\007=_\275\235\275\202\322\305\2747m2\275\207\352 =\337\310\\\274\246\005\352:G\025\344\274\223\\\232<\310\311\325<\345\2220>(\370\254<O\025\001\276\313iP==\327*<H<,=d\027\202=/\201\233\275\371#/\274~\013\026\2750\313\207\275\215Tk\274\234.I=\367\370~\275\277R5\275\0225\022\275\217\354\033\275\272\241\202\274\020O\210=apP=]mu\273\271\006I>\2763W=m\\\t\275B\262\256<\262\004\226\274w\362\234\273\247\220~<\361f\036\274\355\006\033=\201\303\307;uqy\274\365\002@\275\266\346\"<8\253\326\273\035%^=\357!\373<\313\315%\274\350\213i\275\307\rs\275\0054\260\274\313H\344<8KX=X\202\350\274\233\031\t=\267\225T\272V\3630\275\3062\304\273 \374\337\273\024\"\025\275\000c\030=\3378X<)\226\274\275\233\211a<\347\367\236\274!E\315=.\013\023\274\330\'4=]\330\374\274\265\251\340=_\237[\271S0\362\274,\034\213<\302\252\236\274\177\037\224\274\311t\262<\260\256\014\2752\305h=WZ\350=\247-\263<\273lW\274\276a\003\275\322\225S\275\346h\256=&S\001=\305h\023\275-\267$\274\275\013\250\275jA/9[z5<=\3419\275\206$\017<^7\244=]\344k=\353/\211\275e\3561=Q\005\254\273\000\017:\275\263\020\232<\311G\305\274\336\331\263\274\210\3659\274\355\225\333\274\237X\307=C\210\3369\210l\027\275\215\255\316<f\264\360<=\360\030\275\330\204|\274\345f\234=\231\307\335\274{ke\275\374\250\223\275\273\255\321</t\036\274\000\235R=\223\372n<\021\000\000\274\257\226\360;I\303`\274\030\306.=\273\nl\275\255\321g=\235\274\r\275\326\0235=\245\262c\275\213\034\243=\002\342\331:w\370\344<\353\332O\275\252<\256\273\005|\002\275\235\246\344<\206\303\375<V\000P\274\034\013!\274\366\3733=x\244R\275\036l\234<\177\266O=j\016\n;C{\307\274\271`G\275\364~\212\274aA\033=\020\003\257=\260:\312<\225B\"=Z\331e\274\313\234\306\273\301<M\274\362\344\235;\254\337\030;\017\274)=\321\037\005;I@\200\275\355\321\220<\026\325\373\275\3343O=\036L\311\274\304~\\<\237\253\324:\034L\003=\357L6=\342\001=\275\314Z\213;\361\0177;\217\013\202\273\331\353k\275w\006W=\333\350\223\274\264?\274:\027g`<>\274M<\236\3668\275\213\236D\275\271\016\306\275\206^]<=,\021\275\375/\016<\033\337\025=\372\332\263\273\275A2<D\374%=v\324\001=\221\025:=l\343\016<\230L<\274\370v+\275q\014\034\275Df\361\273\216\2643=%\224\316\275\2736Z\271[\205\202=H\302H<\340\375v=\373\373\'\274]\312\231<.\207\325<\233\006\216\275\272\212\344\2753;&<\350ov=Ef\257\273\356\035\207\275p\245\233=G\222[\275\325\004\317\274v$\274\274\367j\342<\226I\030\275a\031`=\305q\222\273Bu6=+`\343<7\310b<\036\201\025\275\301\351\363\274y\302\025=\205\004\223<d\275`\275^\023\024\275|\327@;Q\346z=x)5\275\2079\243\275V\253\343\273\350S\204=\247#\344=C\327\234\275\370\026\033\2750y\232=^\246\306\274\337\362D\275\225\330u\275\226\213\000\275\326\222\200\275\220i\225\275\007\r\321\273^x\300=\315\220\245\275gy\304=\244\037\231=Cn\334\274\262\0024=\205\221\351<5 \350<<\036\020=(\n\203\275\311\275\340;\2342b<\230\362\\\274\336\232\351=:s`\275=\276\301\274k6\232=2\225\250;\337\355\357<\261\021\323\275\0040\222\275P\027>\274!\210h<,t\356\273\205\252\267\274\025\275\232\274\336\005L<\371f[=\016\230\035\275\356(\254;\307\323\225\274\t\367\322\274}3\026\276<\244.=\355\342\257<L\274\025\272\333v|\274<\306\324\274\210\377G<\343j:\273\023\255o=\334^\303\274\266e\016\274pjg\274\343\365\374<\0050S=\032\311\251<\204\347\355<\203w\n\276\3217\027=g\351\203\275\243:\252<i\261\260\275\304\024c\275\016\203-\275\214\177\310;`TG\275\034\233\035\276\352Ad<R\000\226\275\002\035\205\275\030\000\026=\366,\366<\017\373\017=5\224\004\276\320\2415\275\333l\232=\344\007\213\275\003hp\275]cq;^\237+\275\334\347\310\275\222\007\201\274\242\202\356<\304Xe:\326\263\371:{`\243\275i\207\312\274\224\257J\275\020}\332;F\210\320<#\024\\=,\025$\274s\301\346\273\366P\340;\304~}:\272.\261=\363\245\"=%\203a\273|\356\001>\333\257\251\275\236\2228\275\365:R=2\376h\275\354p;=\244-D\275\270\027$\274g@\253\274\\\245Z=\023\334\256=\277\321Z;\254\251\n=\365\360*\274\256\325\312<\030\333\263;\272\004.\275\2757O=|H\"\275\223\023\351<i+\256\275\321pR\275\262\332J\275n\266Y\275\346Mj\274:\266\201\275\257-\322\271\237,\002\274m\014^\275\257]\034\274\340^K\275\307F}=\350U\004=\370\211\332\274\256\n\024\275\271-\255=9M\203=o\310f\274f\206\353<\3218;\275\332\241a=\306/\321<\227\251\331=A\373b\275q\306\360\274\341E\017\275\013hM\275\343\204\r=+\377\202\274\316t\306\274\240!\206\275\237\327\342<\372\033\206\275\350\365\227\274\343\262\200=\357\r\036=/\205\034=c6:=?\357J=\370\241\322\274xa\033>\3450\276<\2636.=F\013\177\272w\266\236<\257\322)<!_\213\275_B-<,\232\327<@7\'\275\271\331\313<w\033\241\275\250\320\007=60\"=\373,s\274z\003\222<\\\345q=\220\323\016=\303\014\224=\010s\245=\230yr\275o\372\316<\207\350\202\275B\006k=\211\252\005\275\206\307\007\272\367.z=\331\310\016\275\220\352\204=\306\340\370\274K\201\014=I)\245\273w\t\2109\332\3539;od\216<:\243];\344\213\322\275\341\n\257\272\021\3778\275\211\336\370\274\237\254\215<)\361>\274u\372\322\275\223\nV\273\367t\274\275\320\261\366:\"\354\341\274\216:\215\275~NC=\007\3309\274\242\014c\274\t\204\310\273ib.\274\030\315\210\275,\035p<,\002\3209\230\010A<\220\001\200=\321Z\177\275\t\310c\275p\321\222<\315\334\241\275JxF\275\t\016\004\275\334\353-<\362\277:\275\277\253\371<\351\241\240\275U\232\027\276\353\255\237<\010%\246\274\336\256#\275\313S\260\275a\212\225:\246H\356\274:C\305\275\260Ep<\344\232\006\275\272\261w\275\034-\313\272D\231\010=\r\245\017=\362\377\226\275\035\016\222\275M\240\031\275d\265h\275\314\323K=v\230\000\2759\177F=\376\205+<\010%\254<8\'U\275\207A4\273\007\251\206\274C\272D\2740\007@<\326QW=\321G\214<\036m\222\274\366\317\002\273\033\375\324\274\207ax=S?\267\275\r?t<\341a\217\275H\260I<n\207J\275\254p\001\276\023\024\243\275\317\177\207;\206pA\275\014\3204\275\263f\302\274D\275\233:}c\317\274\334\257\2418#{y\275G\363\217\274\212\342o\275\254\254B=\260`\013\274\261\323\301<\372\232\271\275T\342\217<\201\260\037=\216\231)\275#\263@\275\267<\214<\'\304\033\275\305\250\242=H\304\205=AZ\250\274\006\271Y<:\272\251\273\"\3671=9\005\345=V\243\r\275\340\005\261\274\200\005\324\274\210\240\003=\244#\220=\371\220\023\274\017\327s\275(hD\274]/\007\275\211\033\300=\214\211\021<^\247Y\273W\212\035\274\207\224\007\275\003\030\334<}\265\306;\005\033\367<\360w\226:\311\263I\275\033\345a=f9\237\273umY=\300Qn\273\276\277\252\273\2628\021<,F@\274\310\314\223<\020Dh\275\215\2450\276\367W\212={x\236<\344\325\215=\322\0052<\225\226\266<H4f<.(\006\276c\260\t;K\007\204<\203\377\240<\211\336\244<\263C\350\274oH3\275\335\223^<qn\016=\034\366X\275\346\374g<\325PB=\244I\207<\356\343\274\275\n\242\030=S\344\235;\033\365\n\275\234\351\245\274\333y3\275(\305\246\275\030\352]\275g\t\307=K\3735<\363WD=s\220\311<\361\227\254=_:>\275\323\\\355;\010I =\275f~\274\376\220\251<#\377\300</8\242=\024\331\235\275\336\317~=\227\032\333=\317pd<\242\251\322\273\300w0\274\030vf\275~\262t=\032G\277;3\213\206\274\252Jq\274rj\013:-\216G\274\211{\266=U:\261=(f\346<\377\021\216=G;\016\274+B\337\275\343\247f;\306M\303<`\240\254=\364\004\254=\320\344Z=\323\366`=\203\\\214\275\277\220\253\275\216g\257;\224\024\r\274*\005\270=\234\201\241=#\263<\275\245\323\223<AN\263\275\262\033\363\275r\001\270\275%\027\252\274t{b=\260\017%=\353\310Q\276\254\357\255=\004L\216=\023\235\347=\251\2657\2755\245?9\276\032\020>v\003\344\274\255\310\320=\233\252\026=\0319\231<=3b=\251\034\244=A\010C\275s<`=\3738p\275\374\003\261<\207-\355<\375\017*\275\225\020\033\275C\370==Q\224\325<\275\347$=h\302g<\201\324!\276\224\310\022=\026A^\275\323\245\020=\262H\211\273>\227N\274%\343\3359c>f\2750\220\206=\017\227F\275{\034.=\'\237\037:\tG\332<\0165\223\274<WO=w\233\337\275|y\246=\023\222\002=\352\371x\275\227\363(\275[\241\251\275^\034\274\274\036\374b=l\3658=\202\217\202\275Sp3\276q\275t\274~\3211:\254\305P<\244.1\273<\343\207=L\325\227\275\026V\314\275\205N\303\274\236\231\200\275\234\247\033\275\013:5\275\374\212\002\275\277\371\207=\331\220\\=\313\022*\275\035\336$\275O\346\243;\020\231\333\274\255C^\275\247,\321\275\216\335\354\274\310\204\244\275u=\325\275[\2636\274\213\325\005=\337\214\212=\200}\367\273\303\036\020=\336s\317=\376Z\211=R\363\032=<D\343<\037\215\232\273\207P\357<9\322\265<\0335\274<%\233h\275+\350p=\260e\214=\305\006\201=9\010\021>P\372\"=\0006\274<\240+U\275\344\333\255\275\001\360i=4;\r\275(<~\275\t\317\363<\307SZ\274\227 \221=c\211j=\303\232\342\272W\331\347<\232>G\275\372A\223==\216H=\254\364\353<\202\257\031;2\330\235\274?\031\000=\220\255\245<\344\266,\274\330\226;>\315\235\"\275_\026\200=s\242\022\2759yx<\206\210\273\271\243\307\364\275\035\"\013=u\nT=\223\365\220=;;^<\272gi\275\036\241y\274\214L\250\274*t\005\275\205\355\356\274w\252\220\274UH\264\275m\362\031=\341\334c=\242\316\324\274\263\251%\275W\001{=\267n\031\275XI\233<b;(\275;\337\264<Q\014p\273\0250#=\306\331\276<\261R\000<\270\037\231\275\352\270\221\275*6$=\016e\001=\303\353\275\274\002\032k\275\332\325\370\271\236\372\300;\233~\032\276\227X7=DxX\275\215\211\214\275\311\331\341<\311\222}=\226\000g<\270\334\306<\303\033\356\273]kN\275\361\207\224\274\244\315\201=\344d\022=`\261\266\275\305\271\200=\2142A\275\351\344\320\274\365\321{\275\252\240\r=\177\217\270;\037\006\246\275k\255C;\314\263\240=\352\273\201=\372)z\275\226\210\255\275\013/\033=\331\014\264<`\275\000<1\372\375\274\004\350\005=r\356\224\274\206\376\335\273\354+\320\274\262R\210\275\372K2=\306G\002\275J\222\"=\344}\300\274\016o(<.\3044=\005\211\250<\336q@\275J\333\305\273n\321\324<\2138\343<Ciq\275\034\323Q=\212\200\036\275\036\023\022=B9\221=d;R\275\265\301\035\275\2079\033=\264Q\271<C(\310\274\262\307\214\274\345e\332\275\376\236\310=l7x\274\034\244\006=\334\343\201\274\250`\312<}\244\336\275w\334\313\275\010\205\026=.L\262\275s\312\255\274\230\254\340\272\270\351\236\274i\310#\275n\344\226<\325=\036\2755i\242=\027\203\257\273\271\241\254\274\361h \275:\237\316\275q\376\346\274r*\275\273\370\321\352<\261\261\'<\217)\215<\270u\271\274A\320\374<\321\256v\275\250Z\245=<\240\212<\221\300\304<9aV=#_\037<\261\326,=wC\010\275+\004v<\204\216\205=|\234\037\276\301\207\210<\304\243\261\274\261T\376\274\037\220a\275fS\237<\224\337\375\274\343\330\330<7\333_<\225\322\312\274A\355\223<\002q\212\274:\002/\275\315\217\033=\344~\n<$Kx=\2552\026=\214\024d\274\263\232\327<L}\250\275\271$\014=\327\216x\275Qj\217=\261\205\211<\203\016\244<\245\252N\275\304<\n=\030\247\000=\317K\004\275\';\235=\255\363\221<\351\2372\275-\340\234<\014\372\373\273\235\272\033\275\314C+\275\376\355\257=E\233\200<Ih\300<d\303\020<\251\266\337<-\3116=\305&_\274m\215$\275M\226\352;\310Y\221=\272\373\347\274\305\274\267\274\001\232\226\275(\177\242\274V\027J\275\013\021\251\275\'\243\217\271\255\371I=HY&\274AM\216=\276\007`=\200&\262\275\363\217\031=\204n\243=\252H\027<c\0204=\033=\264\274lJ\355=\371\247 =\371\216\311=\200\250\200\275\257\311t=B\311\023=\203\374F\274\377\231\211<?l\346<\350\2420\275\376\242\312\275\261\276,\275\037N_\275G\367$=y\315\256;s\\\024\275\261+~\275V\267\305\275\004\351\337\274\364\212\276\274\247\003\002\276\037\254\023\275\007<\257\2738\354\221\272\242\340\023=q\231\022\273\212\236\326\274\024\030c\274d\264\277\274\272\231\222\275}h\\<\305\307\365\274L\267J=j&~\274\213\242\225\275=/\334\274\366\0162\275\241\310\211;\304M\270\274\035\034)=\255(\000<\205\220\337<4\216\206\275#\035\261\274\347:\003:\204\n\004=\350\212\364\274\252t\340\275n\355\031>\242\034\320<\261\002\030<\002Q\\\275\013\236\327\2742\217\360\274\024g\000=[\316\260\274\2332\302\274<\252$=i\355\374\275e\017\244=\302\321D=\345-\214<MG\207\274\357\335\314=$\262/\274\370[\207=\306\0022\275~\274\274\275\'\005\';\377\265\337<\306R\004<>y\001\273\213\267\255\274\314/&=\362\213\326;\"]\\<\251\302\037\275\344\"\231\274\023\r\205\273\345\202B;\234+\030<\000N:\275\330|\274\275=|<<\007\000\365\273L\237N\274\206\021\304\275sqh\2755C\020<d\027\r=sG\005=\241w\215\275&**\275\212_\207\274\252k^\273\025\262\003\275\221\026\352;\371\220D\275\374\364\307\273\322\231o<\007G\335\274I\357\343\275PF\325\274\255\216\207=\220E\000\275H\013\250\274\301\362\213\274\032%r\273\304\222V\274\275\342\036=o\312B\274\021\313\316\275<\314\035\275\356\373\362\275\304\331\314\275\3255m\275\026\261\334<\3345\256\274\3631\247<\366\002\325\2744BK=F\327\004=FE(=\325\372\035\2759|\207=\274\243S\274\353\314\362<\036\227\024={\263g=\020\0351\2748\201U\275\236\270\376\274N\025\247\274\374\314\003=AW^\275bX!\274#\024#\275\035#\335\274\206t\016=6@\310<\376\261\225\273\t\301\325\274\366OD;\274\266\225\275(n\240=%\205\301=\0023\262\275\215\210a:\0051\013\274\261\226\336<\322\022\000\275\372\\\210\275\267\302\214\275\237\200\375=\3004\314=;b\366\273\202\306\323<f\321L\275\351\311\014=e\037J\274\031\016\310<]\\\212\273\237t\226=440\275\326\235\001=\303Q8=\023\263\025>\232I\032=\300\243\354<\222\370\210=\240W\030\276l2\317=\315s\315=\355\201\232\275`\244J=\310O\253\274\251B\177=\025\227U<\2101\310\274.\241;<\234\026&\275\374\271\261<\204\323\323\275\366\261\n=\351\370\036=x\344\250<\254\003\361\274\023\222\307\275\244\177\205\275lG\275\275A5d=;\331$\275\\zN=3\026\203;\223G9\276\026\247\232\274`\217W\275\335\257,=\366\236\013\275*\251]\275\301\225\001=\231\223H=\310\331\261=\273\037K=\232H\001=\224\032\030\275\006\372\237<]\201\215\274\237!\277<\367=A\275\310\ra=\031\366\017=\224\261U\274\336\tq=,Vt<\347\376{=d\365D>\017?\014=\006W\252=\314B\255=i\037\340=\311\346(\275\023\311\311<\360\204q=\364e{=*qi=\236S\267<0Lu=\'N\202=S\023]=o\033\271=y/\322=M\'A\275\314\370\325=\231Y\353=\020P\243\274t\272\272<\314\213G\275\335\301Z\275x,\210\274\306Q\262\273_\032==\001\341\362<>\005t=\336\3315\274\254g\016=\227\341\327\275\261U$=$\332\367\271\327\266&\275\344\211\254\275m\214\030=\034\277y\274\265g\211\275\240\001\231=j\017\372\274yz\025\275\365\340\005\276+\233\022\276\347\306\005\275\316\360\262\274\222\3559=2\302\037<u\374\376\273\306\030w\274\270\215-=99\346\275\377\325t<Lm \274_\007\035\275{\331;\275\323E\331\275\223sM=\213\357+\274\022p\005\275U\303\246\275\2636/\275j\354\002\274u\231\325\274\346\261\217;\210v!=8\200\340\273\312r\225=\220\216\251=qM\027=\034\204\240\274ew|\274g\314\316<\367|x=}\014\243\275\3230[\273\200O\200<\037\372\247\274\246\363\330<\245\244\243\274\014?\202=F\241\212\272\331\253\337<\353\334\254<\336q\024=\273\303j=\360!:\275\025h\224\273\300\230T\275\266\2559<\024\374\212\275 &\021=\005>\026\274\005~\264\275\332D\244<\235\207\262\275\354\226\277\275\334m\017=T_\037\272\351\0164<\233\270!\275\241\014B<\267\311w\273\2114\200\275\336G\000=\301`J=\\\027\276\2741\0000\274~\372N\275\307n\340\272-\177\345\274\241\237P<\275\374}=:\312\002\274$!3\275\331\246\312\275\2579z=\275\300\300\274:\023\017=\236\266d\275\323\221\347\275B\306\t=\272\"\221=\337\353\022=\nA(\275s\246P\275\\!e=s\213\261\275\367I:\275\205\206\017\275\342,\221\274\005\036\376<-\210c\275\036R\200\275\030\233Q=\304\264\263\274\000[\037<\261JP=Sz\273;Ga\027\276\365\374/\275\003\2354\271\212B)\275\345k\261\275-\241C=\264n\230\275\247:\221<\257\365>\275\004\273W<\026\323\r\275K\347\227\275\006oA\275\031\241-=M\255\223<q\013\273\275\321\233\t=\273<\005\275\326\000\216\275\331\243l;>P\220=\374\373\350=\177Xw=\223\275&;\367\357\231<N&f=\277 4=\\\211\271:\301\013\354<\002\273\n=sL\371\274<8\222=(J\330\2756\350\374=\212E\254<\371r\346<\361\232\313<.\033!=\005\371\037\275\016\022\233\273\350\347\237\274r\215\226=X\313\016<NGC=Ax\243\273MV0\274\004\032\255=Pg_=\240\317\251\274\337G~\275\014Ju\275.\332p=L\025\266=\370xh\275\014eq<\027\240\026=\226\221\351\275\3653\206\274\003\310b=\314\303=\2757\n\026\275\323\310\365<1\250\356;R&\023\275}\t\206<&\265\305\272>\2412<\261\365#<l\332\311<t\264\331;y\017\341\274tJ\222=J;/\275\366\352\251\273\346\252\014;\320\207`=\260\277A=\255\360G=\356\372\\=\203\335\003=\323\267\335\273\227\207\206;\365\353l<\346\000F=\"\267!\275\026\265\030<6\333\307\275hmS\275\352\340\253=*\260\355;g\326\215\275Ik\'=u\365\006;|\005\210\275kq-\275\215\230o\275\rh\200=\264H@\275\362\350Q=\025\304\323<\231\250\351=)\307\206\274!\344h<w\323\261=V\207\016=\004LF<H$\004=J\363\351\273\266\0351\275\021\035\366\273\272Q<\275D\3444<y\375T\275\373\202\257;\260\265u\275)\376S\274\317xA=T7\031<\'g\221\274J\001A=]\353(=\322z\272<\351\277\021\275\213\377:\275\274\303\352\274kO\010=\224\2212\274_\025\306=\357r\353;u\335;=)\373\243=\246)\025<@`\r=\005oC\274\030\347\343\274\241\002\242\274NY\317<\240\377,=[\035K=\307\006,=\354\032u=:\2471<=,a\274\247?7\274\026l\224<X*<=\230p\032\275\245~F\275\001\273\232<\3462n\274\227#1\275<[\317<]0n=_\374\251<\177\031\004\274\345Mv\275\260\236 \275b\246\300\273\3478\r=\216\234\331<x\346\233=(\313|=\303\232\225\275\3464\222\275zK\245<u^\033=\r\021l\275\251W\201=\352+\210\275\241T\237<\316ws==\226z=\005^\210<\236>\272\273VtQ\2748S\342<\321\265\225\275EO\231<!\222\260\275F2[=1Sc\275Yc\014=\351kr<\375`\267\275H\322\264\274\237\332\254\274\343Q\'<\334\356\371<c\276$\275DE\335<{\236h\275\035\365f\274\211VS\273\241\245\364\272\265\355\331;\275\337\274=G(q\275e,8=\342iy=\220\313z=\350\221c:<\2146=\2716\350\273\201;y\275!\375t\275\313J\275\275\254j\376\274LhR<\245q\260\274&}\003\275\263T\230\275\343\000\264\274\247\232\230\275\341\367\227<\037\223\312\274o\3727=\316U\004=\033\334\316<\330\351_\275\220i\347\2752\260\030=\276\177\247\274!\353z\275L\333\270<\013\370>=\364\252x\275\341\355\037\275\217:X\274\254\333\255<w;:\274\207\235\340\273i$\217=`c\356=\022\004-=\000\377\032=\302\334P\275*y\007<\337q\205\275\320\nS\274\303h\200\274P\225\306\271\273\334\351\274jCA=\246\244q\275|G\032<\237\010\315\275q\254\027=\027\320\003\274\371K\353\275\277E|\274\261\002\035<bD\311\275\325NK=\307\345\227\275Y\204\372\275\200v\371\275k\233\213<\206\247\000\275d\265\216\275\345\000~\275\373T\211\275\177\024\326<\344\230\236=%\371\223=`)\277<;\340*\275\326\244\216\275M\251\235<\377\1771\275\033\343\016\275;\2263\275ia\255=:G\'\27406\01683\335\227=\315\277\320\274(\306\204\275--\227=L\352~\275.\350\240\275\030\270\213;\t)=\2748\350\335\275\213\361<=}k\211\275CuF=m\316\225\275\006/G=\211?\215=\216\207\024\274u\027E;\315s\200\275[<\202=O\354j=P\241!\271&R\022=-\260\031=#}K=\177D\256=\0201\301;VgS\275\303\322\252\274\203\250\217\275$`\200\274\236\360c\273O\016\365<\331\341\312\273\270%\027=\321g\033=%\022g\274\332\310T\275\354\r\037\275\331\2643=\343\253\302\273\n.\204\274\331\251\003\275\220\213:=\256\314f\274\342\233\244=\037\266\200\275.\207a\275\334J\206<\306\302\036\274n\352\026<\275\027#\275x?\200<\307\345\211<\270\020e=\374t\227\274/?E=R\377\026=\245\311\000;w\305\216\274\204\275\213\275\340\026\233\274\257\354E\275\023\360)<\263\326\231\274mt =e\200\300<S\345\253\274\3755F<\324Q\326=\222\261e=\3156l\275N\016\330\274M\204\003=^\252\275<}\347M=<\300\025=\010\212\223<\337\372\026\275\372\226\210;\256\032V=q3\3729\222\006\252=\211o1\274\"\216\215=\345\027o\274\026\203\347\274\014\235\236<\301\260\256<f\260\t\275_\226b\275X\"C=\200\213\262=n7+<\315\333\247=\342\264\177\275\313\275\377\274\326{\277<q\250\241\275JL\223\274v\234\277;Af\241\274S\0068=\273\233\014=g\230\021=\232o\241\274I\276H\275!d7\274\221\017==\354\234\356<\324,w\274\211zv\273`\202\240\2757\001\002=\343j\353\274\326\201C\275BJB;:V\336\273b\353\321\273[u\221<&\344\362<\365\030%<\315\'\330\274\217\315\030=\3665\326\275\327$_=\273H\206\275\n\341\327=w\345\272\274\217{\245\275\354\355\246<\337\256\315;\001\374\027\273\010\301r<Q\271\254\274\3356\323\274\226\243\332\274iBG\274\317\262\257\273\264\357F=\027\0145\275\035\025N\275\324\242\265\2753\340\326<\217\000\037=}\202k=Oz\214\274\032\006\367\274_\347)\275\314\004\005\275\2737\001=\322\2273=\327NC\273\240\212\361;\006\001@\275\353\032d=\005w\201\275\206\237A<\301/\212=\272&\250<\327!\363\274\220R\227\275\332!\351\273]\002\363\274\310\215\255<\330\315\016\275\225\265\215\274M\252l=E\022\n\275}\232R\273;~\006=Us\021\274\0275P=\244\256y\274F\206j<E6\323<p\374\211<\201\266T\275o3%\275\276\021|<\363\207g\273/8\263\2742\325\003=\241\010R=\243\302\r\275\353h]\275\224\247^\275\340\361\232\275\335\323\013=\032\320\256\274\311\271G<\324\301\333\274x\023\207=\000\327\253\275;-\244=s\360\323\275\272\003\236=\021H\344;\336\316\014\275\300A\\\275\355\221\"\275\335,\306;\371\305\032\275\354\305\212\275gk\222\274\237\322\002\275f\222\001\275\245\255.\275\004\016\007\274\205vS<AX\200\274\334\260\014<y\322\241:l\372\003\273\233\356*\275\262$A:\023z{=9\2133<\215)\002=\350H,<\344\232\337\273\262\316y=T\305\007=\017\007F<\212^)\275\252\243\306\275@+t\275\177\332\020=\207\000\270=\267\367\026\275D>\326\274\262\255<<\000\276a\275\251H\235=\323n\177<\311\030\234=\334\273\023>|\2562\275\004\230\221=_\210\204=\000\305\212\274\2655\016\273e\217r>\354\016\"<\016\003\202\275\323\037\220<2\226J=2\266\334=\010\321t<\203\226@;+L\032=f\251s<\204\017\357<\274/\177=\277\310\234={$\311=\334\303\332<X\365&\275Y\331!=\005Z)=\201\306\210=\277[%\275_\240\214\274\312\350\220\275\336r\275\274e\232H<A\361E\274\323z\030=\352\243q=v@\032=\335\334\302\274*\010\224\275i4\262\275tKR\274\250\305\257\273\226\2351=\372\025\334\274+\224\030=d\022\024<\316Y\024\272\216\004S<u\325T=\035S =\014\226b\275\225\017)\274\224t\232\275\023\205\365\271\360\370\345<\212\262O\275\2357\247\275\204i\035=2MH\275\017\223\222<\270\033\000\274$\255\006=K\321m\273\334Q\203\275\"{g\275\026\305H\275\244\023\013\275\336\032\365;\306\260\327=(\223\246=\'\026\312=\3100\261;\014x\202=\002\255\005=\357`a\2752 \036<M\370\317;\337\013\375<\341\240\311\273Q\266\216<<\212|\275\220h\270\274\224\260\035=\243\250t\274\262\3378\274\2344\272;\027\010\215\275\355\016~<k\0175=*Z\234\275\307U\342\274b\376\021=\020\343\017\274+\004\333<\376M\217\274\272\206m\274\367C\346\274\264~@\275\243\006J=\306az\275B\036#\273\3665\032=\235\222\013>\216\200f=\340-t\275\005Ry=\210L\326\272\266\246\322\274\364\364\340\274|Q|\274\262Q\204\274\237v\216=mQ\246;\316\351I\274\326\363\204=]\304\206\273\025\363\014>,X\001=\017\341\275\273\340\214h=\242m\325<\257\267p=\345\377\245\274\226\202\023\274X\3010\273\361NX=\261\275\266<\321\225\217\274\022R\"<\254y\370:@\032\002=\320\325(\273P\304\200=!\2168\275s\345\\=x\247\203=\241\312\000\274i\272`<a\342\277< fo\274 \346\227=\t\002\322\272<\270\236<\266D\234=\315\235r\274}\345\274<Y\337w<\354j\357=\020+\177\275\356k\216<P\354[<:\200\257<_\271t\275N\360a<7v\326=m\252\214=\315l\212\274\373\372\326<\253\000a\275H&\241=\351\323M=b\177(\275\367\234\266\275\271\313\010\274\340\300\236<\313s\235=z+-=\345\2156\275\3326\367:dx\301=\226|Y\274D\032\326\274\374$\036\275\253\213\334\274\027\334S\275j\377\003\275\312|U<\037\376^=\333\215\211\275t\276\223:S\212U<\007 \246\274^\200z\275\242<\236<\321\355f\275\320\2776\275\031\3337=kf\330;\230\027\321\274J0\373\273z\363\370<W\023\312\273\212\343\242\275}/\344\274\003\336\213;\277&\007\27538\023\274\036\0028<\211\312\003\275>\007\245\275h\020\023\273?\252\364\272K\336\224\274t\257\205\275wM\033=\334O\014\274nL\006<WM\263<\235\210\007\275\304\033\206<\025\030f\275s\332\200\274%\200\035\275\236\217\375=\224c)\275\311\030\273<d\022\220\274K\274\345\271\177\262\227\273\357\302-\274\252j\202\275A\307\231=^k\367<\366\'\272\274\277<\302<-ma;7\311B;`\300\230\275M\240\320<\303N\227\274\312\335O\274<$\235=U\\\350\275\036d\363\274\222\r\247=/KS<,\374\214<}\025\230\274\274&\255\275\330\006\374<\357P\243;\236\031;=K\203\301<{\220\223\275\r.w=\211\202\242=\321\327\257\274\"s\344;\260]&\275r0\244\274\266\000\220\274u\375Y=\322\332\356;\217\245\352<ll\262=\342\300C=2\360{<}~\033\274-]\255<\274\022\024>\215\324\022=\253\027\251<\303\303p=\006\334\372=\266\030\212=Z\"\324:\202ZO=\275g;=\273\235/\274\tG\267;\351\324\334\274\250M%\274\361\212B;?M\205=\373\305\022=\233W+\275[=\306<\005\366\344\274\3033\246=\215(\345\274N[\276<nK\200<\243\355\235=a \330\273\226\376j\274\302\256\320;0\372\277\275.XZ<\326[_=r\206O\275\334\331I<\350:h<h\212\226<7\206\220=\362\006\251\273 4\251:YM,=\306\320\315;E\322$=2\261\306<\3571\217\275\365\242\265\275\365\314\274\2732\366\231<\225\324*=\021\002\256\273,\2015=[\254\214\274\221\255\304<\202\021G\275i\271y=(\244\275<)\353\220:\365r\r;\204V:\275\320\374\327;\270\362\217=\0274\366\274\363\273\312\275\000\202W=\200\367\006=\005\267\301<q#D\275&O\000=y\036V\273\357\202\260\274\347\215\315=\231M\006\274\335\274\r\276\370NG\275\341\312\270=]\355>\275z\305\032\272\375\252\266=\023S\323=a$\234\273\244a\250\274\240B0=5#9=\301\226\311=\260O*\275\277\367\232\275\216\260\262\274!\352\356;p]\177<g\361\207=\210\ts\275M\026\247\274c\235\221<\317\275\305\274I\355\232=\3610\227\275\364\237\261<\312\226\346\275g\240\241=C\027h\275\200K\266\275\034\357_;\020\344\325<\276h\204\273+\002\306\274\276\256\302<1\376\213\275!.\t=\352\334\231\274\"\314\225<\233?\374;\356\2057=9\3713<\213\341\347\274FD}=\024/\222\275\000\240J<\034\243\323\274\333\331\317\273\337\005\020=\014\321\270<\356X_\275\373\270\277\275\032@>\275\035P\013\275Rzs\274b\250\362\273\302#\034\275fB\022\275\361r!\275j\353\n<j\0074\275\227l\205\274UT\007=Y\257\006=\345\232O\273\215\320\3079\301\354\270<\233}U=\216G\3749\352\247M=\246\245(=\217\313!\276\035\025t\273Kr%=\234\253\323;\260\021\370\274<l\030<\035\300\215=;qg;=\373 \274\367\312\311\2741UO\275\336\312\352\274O#\247=\201 \313\274\260\r\242=\207I;=\375D\315<\341@\365<n\374&\274\221\007\022=\327\323$\274\367K\2239v\262\313<\205\252,=Q\346\233=aa\030\275qK\3579\243\200\257=\356p\227:\245\316\016\274\365\306&\273Z\207~<\245k\335\273\321\2268\274ruV\275\275_\003\275\314\004\200=\356S\217<z\205\325<y\215L\274\365\264\235\274VpW=\261\231\264\274\014A\250=\3744^=\367\241\233\275\353\376\210\275\005\243\035=w+\324;\"uQ=\326\315\"=\301c\266<A\255\236\275Rk\235\2749\310&\275p^h=J)+=;\270\210\275\357\206\205\275\341\352\355<\241\021==\236\204\313;FaN=\033\253c=\271\271\226\275\260\375;=\233\215a<\021\007>\273\332(\213=\t\027\211\275#\267\n=\217\345\211\274\263l\306\273Cv\216\275\204}\\\274 +/=v\304\215\274\354\214\252=\220A\034\275\221]R=p\331\221<l\335\345=\204X\310<\222\206\216=\204tT=nk\023=\310\226\261\274\313\364\353<\304\002\306;Y\004\203\275\344a\322=\257PZ=\370\272$<\276\257T\275j\266\032=\300\231\203<\025\2070=\3668\213\2751\013T=\370\020\273\275\335\031~;! c\275\010\374\'\275\235\335\320;z+\214\275\306]\205:\002\311\226=\350u\002=\220Rm\275\255\3223=\371\347!=\363V\023=\"\215^\275CL\261;\345\262\242\274\002\216\257\275\3628 =\245\326&\275\263\213U<c\344\016\275\273\\K\274\306O{\275\324,2<\375\304U\274\333\225\340\274\240@\266\274WI\327<\274)\300<\0377{\275Uw\260\274\247\255\034\275\023\007\230=\373\315\037=\005\033\243\275n\365\263<n\306\"\275\236\035#\275#\251\234\275\252\332\366<\251\r6=\211\364\237\274\305i\205\275.q\233=t\017\347\274l\242\364\273\2036\353<\257Qg=\271b\030=K\233\243\273<S\007\273J\313\222=a\320.;\336\026\364;\217g =\201\202\311</\356\265\274\333\316\021;\362\324\216\272\032\260\005=\2751]\275\253Y\202\275E>R<f\346\037\275\234\300\021\274\0041 =\317,+=\254\216\025\275\304\330\334:\360\313_<\300F\234=\236\272E\275\272\223\n\275\263\025\022\275q\271\302;tg\225=\344\236\306=\211\n\026=\221\250_<\237L\200\274\024\206\326\274Z\315;\275\251\n\346<)\372\217\273\1773\247\274\2374\271=\326\201\030=3\275o=\237\325(=\311F <\376\242h\275p?\372\272J\233N\275a\3466\274\370pp\275\346\347\227=;Aj\273\007\332\315\273\214\232\021\275\"g;\275\366\022\215=\270\335\326<\177\216&\2752GD;\2378\274=\017\340\357\274\260\300\257\273x1\212:^\016F\275n\020\220=\340\361\003;~\013\006\275p\326\214\275\360\305\213=\021\261\t=\013\206\207\274\324\200~\275\210\235J\274)oo\275;j\204\275\031\310\210==\356\327<\031_\"=\024\351\374\2748\330\310\274]\250\235\275\364\t/=*\272\331\2753\367K\275\227\230\340\273\032\225\226<\353\343\017=\260\203\006\275\177\032\301\274\310\352&\274\026\335*\275\0311\252\2754p!\275\003Dy<\300\365\273\273\306]\227=o\356\240\273,\360\375=\361n\337=\240\361h=}\025\023\275\302\203^=\241t=\275\336\037\320={[\200\275\377\034\217\274\204\267;=\033\230b<\225\300\355\274\204\341\232\275\332\354H<\306>\260=\275\242\361=\347R\033<\346M\212\275\324\277\271<p\375/=`\010\363<r\007\221;\331\'\271\275\026\337\n=\267\373\333<\021\020\214\275P\226\014=\330\331\036=c\257\332\273\312\322\355\272\n\031Q=\322\017\276\274\277\014\006<\360\332\230=\211Q\315\275\177\210\227\273\355\267?\275\255\330G\275\335\036\307;\334{I=\2044\010\276e\363/\275\364\220)=m\366\025\275\340kp<G\027B;\261\344\375\273tJ\333\274\246\032\"\275l\324\024<\263~\"=kE\306\274q\377\036=rS\214<\265\036c=k\262\345<\275\013\005\274Fu\271\275\375\327\244\273/\321\025=}\n\251\275\311\213\317\274D\r\'\275V\321\227\275\033\023\246\273gV\"=\376\370\321\275\032\003R\275DL\237;\326\245u<\274t\"=\240#J=G\217\005\275\372\004g=\271A\220\275\236\3728<\027\372j=]\372\357<\326\324\362\274\375(r\275\243\225]\274D\316\244\273vn\033=\210\275m=\217]@\275\374\t\031<\322Z\225=.\036\341\274\264\307\005\275F\273\321<\263\022\205\275\021\351\014\275\304\374\212\275HD\313\274\327\326\255<(\345\021=>\364\003\275L\2516\273XWP\2757\302m\275t\276\250<\037\016\377<a_\262<i\314\364:z8\250\275\227\346\032=\301\264d\275\347\211\361<6\007\265<\032\261?<>}d\274D\270f\275\202e&=\313\335|\275I\004\215\273\230\301\363;0\362\031\275\02096<\233\371\221\275\022\313=\275\275n\034\275o\265x\2752EM\273}\3034\275:\201\227<\006\311e\275\0369t=A\013\017\275g\210\000\274q3g\274S\034+=\000\250\243<\007\234\326\274\270\022\025=\255\336)=\217\033\246=\035\356[=\275\254\230\275\022+\233\275y\031,\275\301\322m:\353\262\'\273\006W\007=\037P\215\275\375\317V=\346/\214\274\264D\200\275\237\240\207=\300,\341\274O=L\272MF\205=\027\312\037=\244\303\031=\213PQ=?3\223\275\355il\275w\321Z\275\260\324S=\362nd\274\342\271:=W6;=\230\234\244=\305:J=w\361\314\274\207\006\223\275Cf\216=\342\322b=zh\021<z5\024<)\266\250;\250\372\221\275\210\3237\275\375\226!<\247U/\274:,\365<\325-\253\274>0\200\275l\350\311\274\261s\213=\211\203(\275\241(\230<\273WJ\275\273\t\r=Fr\273\275b\334\266;\025&>\274\363\010\247\275O\367\255\275a\303\002>OX\374=\033\n\017\275\305\332\301\274\353\2571>\026z\021<\"\200\r\275Q\367b=\245\335\274=\337\374\275=\252\312\272\273\360\322Y;gm\373\273\354\345\313=\177\3608=p\272Y\275\332\202\273=\222\2317\275\261\032\271\274\301\262\231\274\'\363I=LK\377<\365\037X\274[\255\205\274\311D\276\274\325\005\225=n\013\232\273\203R\220=G\260\345;\000T\340\274\024\\\337\273\036\246J\274wt\261\275\235\021\323;\204\360\212\2744\024\330=@\337\251\274\273\372\356=\005\021\034>\217\037\207\275\007\322\322\275X\242R\274\r\220\227\275\212{\243=\206C\321;\3008\257=\362\n\010=Mp\355<@:h\274Z\3412\273\221\362\350=\007+`=\366f\014\275f\001\033=`\262\310=\376\225\210=~O3\275\361\347U=\335\201\342\275>WT\275iev\275\"`\301\274\237\005\310\274\200\215\264\274\236\376\236\273\257Y\231=\316\304\341<\270\331\350\274\351\237\016\275n.\205=\273iJ\275\234Rb\275\013]w\275\r!\306;\330e\"=}\231I\275^\305\326<\276\373\200\275N\034\217\274\006\007\220=i\213)\275\001\375!\274\025_\023\275L\222v<^\340\351<\256_\226;\253\214C\275\222]\310;\246\351+<\2143\236\2731\005\263;\226\017\177<\177\271\'\275\304\273j\275R\300d\274j\321\376\2745\351\237=\221\236\000\275\271\211s\274\205,\346<+\326V\275<\362\211\275^\n;=\230\235\n\275\237s\206\275\005\311\227\274zY\263\275|\255c\274\210\313u\275\310^\256\275\212\262\014\275\217\371\315\274\032\341\343\273\346\362\242\275ao\333\274\346\247\";\016W\257=n\3560\275\207\355\032=\020@\277<\227\t:=\215\373\274\275\036%\274\273\256\207\210<\264\003k<\211\035u<\026<i\273\343A\241=\265\226\006<4\016\231=\326\022\375<\313\343\025<@)\245<9e\004=&\351\210\274\222\024\325=\343\2314=\253Y\r=\0031\343=\006\026v\275\343\236\211\274\263v\014>:\376\234=\337\020\213=Y\356m\275jC\233=\372xD\273\213\327\212\273\035\355\262=FS?<\316\037\010\275}D\322=\223\316Y=\025EA=b\2700=\211\205K<^~{=\241\361t\275n\207\244<\206\035\372\275@\244\265\274\030\350~<\033\225P\275?\332\326=\214\n\335\274\236\3726\275s \277\275\017\261\300=\004\263\211<yWs<\203\003E=\213\203\006=|\321\205=\242\014\273\275\210sv<JCC\275\tBQ\274n\261\232<\222\'(\275\331,\212\273\212\323G\273\004/\363<A\375F<\207A\353\272\231\262\271\274\352{\r\275\r\375c=\344k-;j/\301\273a7\324;\006\026s\274\315\326\213<\341\204\\=\334\256P\275\270{\276<\006\325\t=\"\335\364<\234\2131\275;ge:\201\357Z\275\373w\266<\034\2156=C\214Z\275\207\2062=\222d<=\037\2311\275\225\252\245\275\236G\004<\302\344P=%\253K=\305\213u\274d,}\275+\357%=\340^(\275\362\013\027=:\315\320\274\002 \321<\365V\275\274\260\325\354<\310s@=\213c\025=\027\306\260\275H3\320:g^[<\370\031\032\275\002\350\370\274(\257\275:\217\267\005=\201\223D\274\251-U<\233\345q=C\374\215=\346q\n=y\211\207;H\005\024\275\20378\274\027\360D=Z\240\024\275\234\243~\274\001\000g<\007$\355\273\274xG=E%o=\210\313j;f\340\014=_#f<\376\300\207<\265\246\232\2741\002\202\274\3720c=M1.=-\351y\274>;\010=\037\021\307\274A\343t\275~\r\246\275\247c\317<m^\213\275\232\356\243\273-=k=\022\265\357<\215\365\004={\024\017\276x^\007\275\300%\001\273&]X<v\000\303;\353\212\240\275h\0202\275\001=\031\275r\016%=\005\334\261<\224\273\017<\263\006\306< \215\227<,\217\035\274\022\226D=Z+3=3K\266\275\347\321\031=?7\346<\356Iz\274\360_9\274Mr\206\275\332\2664=\327\017\212=\267Y\365<\016\354\225=\273\316\000\275<\'C=~}\300<\027\037\224\274\342\351W\275\303\225\013\275\272\336\207\274\264\344E=\312H\342;`8\367\274\n/R\275=g1\275c\241\016\275)\013\266<EB\007\276\003\333\200\274\204\377\305;];\260\2746pZ<\240\\\266=\300\342\262<Nzk=3\265t\274\'\330\311<x}\265\274\245[\222\275\007\375\221\275Yz\365<\001_\304<f\036\232\275\026\267\314\274\221\"\210=\236\366\215=*Mf\274\203e\212=\303j\351\271\371D\360;H\372\273;p\213\222\274Gm\225<\\\221\000=f8\252<\223\365z\274w\005\346=\201\210\200<\210\336^\275\227\332\237<\326\251\215=\365\013F<\237\226e<@\314<=i\3609\273\236\002 <\302\254E\274rs\234<\325\244!=\036X\242\275~(C\274\246\\\315\2746<\234\273\203\340\221\275\177\376L\275\266UG\275\304\342\252=\035\005v=y\246\010\275\r\033\235<\241l\202=^\'`<\032\032\204=q4\227=\272*N\275\264\213\232=\214?\217=\360u\343\274r\213|\273\026Z\327=\221p\210<#\331\003>wTQ=\r\017\305\274\361\346\225\273\216\267\310\274j\254\362\275D\333\004\275DF\321\275@^\006>\372\313C\272\001\211\017\275W\274\274\275\334k\204\275\rB1=\232\362\375\274\343Z:\275\275\221\212<\016\356\210\275\320#W<|\303\230=\206&2<\311\001\020=g\274W<9\237m=\364\177\256\2752\221|=e%\215\273~\205\232=q\002_=RV\323<\274\252\304=G\277\270\275\224\326E=\304\255\022\274\313\031\267;\256S\n\275\352:\224<@\304\241\275\211W\330\271ya&=V\036\002<7X\224=\"\374\225\275\177$\203=\241\002q=\023\345\335=z\264\306\272\026\375\201\275Rc_=\213N\216\275>\020\274\274\022Gi\274\326\3631\273\3157\213=fd\330=\332d\023<\344\230 